
unsigned char g_magic_wand_model_data[] = {
  0x1c, 0x00, 0x00, 0x00, 0x54, 0x46, 0x4c, 0x33, 0x14, 0x00, 0x20, 0x00,
  0x1c, 0x00, 0x18, 0x00, 0x14, 0x00, 0x10, 0x00, 0x0c, 0x00, 0x00, 0x00,
  0x08, 0x00, 0x04, 0x00, 0x14, 0x00, 0x00, 0x00, 0x1c, 0x00, 0x00, 0x00,
  0x1c, 0x00, 0x00, 0x00, 0x74, 0x00, 0x00, 0x00, 0x34, 0x2e, 0x00, 0x00,
  0x44, 0x2e, 0x00, 0x00, 0x9c, 0x3d, 0x00, 0x00, 0x03, 0x00, 0x00, 0x00,
  0x00, 0x00, 0x00, 0x00, 0x02, 0x00, 0x00, 0x00, 0x34, 0x00, 0x00, 0x00,
  0x04, 0x00, 0x00, 0x00, 0xdc, 0xff, 0xff, 0xff, 0x12, 0x00, 0x00, 0x00,
  0x04, 0x00, 0x00, 0x00, 0x13, 0x00, 0x00, 0x00, 0x43, 0x4f, 0x4e, 0x56,
  0x45, 0x52, 0x53, 0x49, 0x4f, 0x4e, 0x5f, 0x4d, 0x45, 0x54, 0x41, 0x44,
  0x41, 0x54, 0x41, 0x00, 0x08, 0x00, 0x0c, 0x00, 0x08, 0x00, 0x04, 0x00,
  0x08, 0x00, 0x00, 0x00, 0x11, 0x00, 0x00, 0x00, 0x04, 0x00, 0x00, 0x00,
  0x13, 0x00, 0x00, 0x00, 0x6d, 0x69, 0x6e, 0x5f, 0x72, 0x75, 0x6e, 0x74,
  0x69, 0x6d, 0x65, 0x5f, 0x76, 0x65, 0x72, 0x73, 0x69, 0x6f, 0x6e, 0x00,
  0x13, 0x00, 0x00, 0x00, 0xbc, 0x2d, 0x00, 0x00, 0xb4, 0x2d, 0x00, 0x00,
  0x9c, 0x2d, 0x00, 0x00, 0x64, 0x2d, 0x00, 0x00, 0x54, 0x19, 0x00, 0x00,
  0xc4, 0x18, 0x00, 0x00, 0xb4, 0x06, 0x00, 0x00, 0x64, 0x06, 0x00, 0x00,
  0xd4, 0x01, 0x00, 0x00, 0xa4, 0x01, 0x00, 0x00, 0xbc, 0x00, 0x00, 0x00,
  0xb4, 0x00, 0x00, 0x00, 0xac, 0x00, 0x00, 0x00, 0xa4, 0x00, 0x00, 0x00,
  0x9c, 0x00, 0x00, 0x00, 0x94, 0x00, 0x00, 0x00, 0x8c, 0x00, 0x00, 0x00,
  0x6c, 0x00, 0x00, 0x00, 0x04, 0x00, 0x00, 0x00, 0xf6, 0xd1, 0xff, 0xff,
  0x04, 0x00, 0x00, 0x00, 0x58, 0x00, 0x00, 0x00, 0x0c, 0x00, 0x00, 0x00,
  0x08, 0x00, 0x0e, 0x00, 0x08, 0x00, 0x04, 0x00, 0x08, 0x00, 0x00, 0x00,
  0x10, 0x00, 0x00, 0x00, 0x28, 0x00, 0x00, 0x00, 0x00, 0x00, 0x06, 0x00,
  0x08, 0x00, 0x04, 0x00, 0x06, 0x00, 0x00, 0x00, 0x04, 0x00, 0x00, 0x00,
  0x01, 0x00, 0x00, 0x00, 0xeb, 0x03, 0x00, 0x00, 0x00, 0x00, 0x0a, 0x00,
  0x10, 0x00, 0x0c, 0x00, 0x08, 0x00, 0x04, 0x00, 0x0a, 0x00, 0x00, 0x00,
  0x03, 0x00, 0x00, 0x00, 0x02, 0x00, 0x00, 0x00, 0x04, 0x00, 0x00, 0x00,
  0x06, 0x00, 0x00, 0x00, 0x32, 0x2e, 0x31, 0x34, 0x2e, 0x31, 0x00, 0x00,
  0x5a, 0xd2, 0xff, 0xff, 0x04, 0x00, 0x00, 0x00, 0x10, 0x00, 0x00, 0x00,
  0x31, 0x2e, 0x31, 0x34, 0x2e, 0x30, 0x00, 0x00, 0x00, 0x00, 0x00, 0x00,
  0x00, 0x00, 0x00, 0x00, 0x44, 0xc4, 0xff, 0xff, 0x48, 0xc4, 0xff, 0xff,
  0x4c, 0xc4, 0xff, 0xff, 0x50, 0xc4, 0xff, 0xff, 0x54, 0xc4, 0xff, 0xff,
  0x58, 0xc4, 0xff, 0xff, 0x8e, 0xd2, 0xff, 0xff, 0x04, 0x00, 0x00, 0x00,
  0xd8, 0x00, 0x00, 0x00, 0xb9, 0x76, 0xb6, 0xc2, 0x62, 0xee, 0xa1, 0x58,
  0xf4, 0x9b, 0x7f, 0x0f, 0xd8, 0x76, 0xbe, 0xbf, 0x49, 0xa0, 0xcc, 0x3a,
  0xd8, 0xd3, 0x4c, 0xfa, 0x13, 0x3a, 0xc7, 0x14, 0x10, 0x44, 0xe1, 0x26,
  0x7f, 0xf3, 0x15, 0x36, 0xe0, 0x40, 0x63, 0xd2, 0x3b, 0x73, 0xd1, 0x1f,
  0x4e, 0xf2, 0x22, 0x3b, 0xcf, 0x30, 0x4b, 0xf9, 0xf6, 0x3b, 0x33, 0xc8,
  0xd5, 0x2a, 0x0b, 0xb0, 0xe3, 0xe6, 0x06, 0x13, 0x3f, 0xc0, 0x1a, 0x7f,
  0xc0, 0x01, 0x2f, 0xc9, 0x3f, 0x37, 0xf5, 0x5a, 0x23, 0x14, 0x15, 0xeb,
  0xf7, 0x25, 0xfe, 0xcd, 0x5b, 0x42, 0xa0, 0x4b, 0x0b, 0xd8, 0x51, 0x1d,
  0x9f, 0x78, 0x33, 0xac, 0x42, 0x14, 0xc2, 0x35, 0xfa, 0xce, 0x7f, 0x1c,
  0xb3, 0x55, 0xf8, 0x9b, 0xc5, 0x3d, 0xc1, 0xe1, 0x7f, 0xba, 0xcf, 0x29,
  0xf7, 0xd8, 0x19, 0xec, 0x98, 0x4d, 0xfa, 0xe5, 0x5d, 0xbc, 0xac, 0xc3,
  0xd6, 0xfd, 0x64, 0xf7, 0xc2, 0x3b, 0xc2, 0xe8, 0x61, 0xb0, 0xb9, 0x36,
  0xc6, 0xc1, 0x38, 0xd3, 0xe3, 0x57, 0xdd, 0xd1, 0x7f, 0xbb, 0xea, 0x46,
  0xe1, 0x12, 0x1d, 0xe9, 0xfd, 0x2a, 0xc4, 0xe8, 0x22, 0xa1, 0x04, 0x3f,
  0xe7, 0x29, 0xe0, 0xc3, 0xfa, 0xf2, 0x93, 0x30, 0x49, 0x0b, 0x3f, 0xcd,
  0x9e, 0x57, 0xe0, 0xbc, 0x22, 0x24, 0xfd, 0xf3, 0xe3, 0x81, 0x11, 0x98,
  0xb2, 0x09, 0x4b, 0xe1, 0x01, 0x30, 0xb9, 0xea, 0xe3, 0xce, 0x2e, 0x48,
  0xfc, 0x51, 0x65, 0x91, 0x3e, 0x1f, 0x81, 0x1c, 0x1d, 0xea, 0x62, 0x34,
  0xa0, 0x1d, 0x03, 0xb1, 0x72, 0xd3, 0xff, 0xff, 0x04, 0x00, 0x00, 0x00,
  0x20, 0x00, 0x00, 0x00, 0xbf, 0xfb, 0xff, 0xff, 0x4f, 0xfe, 0xff, 0xff,
  0x8e, 0xf9, 0xff, 0xff, 0x43, 0x07, 0x00, 0x00, 0xa5, 0xfa, 0xff, 0xff,
  0x40, 0xfe, 0xff, 0xff, 0xa3, 0x11, 0x00, 0x00, 0x90, 0x02, 0x00, 0x00,
  0x9e, 0xd3, 0xff, 0xff, 0x04, 0x00, 0x00, 0x00, 0x80, 0x04, 0x00, 0x00,
  0x3b, 0xe1, 0x1e, 0x03, 0x2b, 0x25, 0x09, 0x02, 0x40, 0xc8, 0x25, 0x17,
  0x57, 0x44, 0x11, 0x17, 0x19, 0xe0, 0x25, 0x1d, 0x3e, 0x56, 0x1d, 0x02,
  0x37, 0xb9, 0x0d, 0xfb, 0x29, 0x43, 0x33, 0x3d, 0x1c, 0xb5, 0x38, 0x26,
  0x43, 0x38, 0xf6, 0x5e, 0x26, 0x81, 0x17, 0x4f, 0x17, 0x3d, 0x28, 0x2e,
  0x21, 0xde, 0x1c, 0xfc, 0xff, 0x0c, 0x34, 0x02, 0xeb, 0xcb, 0x18, 0x43,
  0x25, 0x11, 0xf5, 0x00, 0x00, 0x8c, 0x0a, 0x5b, 0xc1, 0xec, 0x4b, 0x4a,
  0x09, 0x5b, 0x0e, 0x0c, 0x15, 0x04, 0xf5, 0x13, 0x37, 0x63, 0x2e, 0xfb,
  0x37, 0x29, 0xdf, 0xff, 0x25, 0x56, 0xeb, 0xf1, 0xdd, 0xe3, 0xe2, 0xea,
  0x07, 0x21, 0x1e, 0xfc, 0xf1, 0x24, 0xcc, 0x30, 0x17, 0x7f, 0x3b, 0x41,
  0x14, 0x0f, 0xd2, 0xf0, 0xe9, 0x3b, 0xf5, 0x27, 0xfe, 0x08, 0x18, 0x13,
  0xde, 0x18, 0x09, 0x2c, 0xc9, 0xdd, 0x1a, 0xe9, 0xd8, 0x41, 0x13, 0xfc,
  0xfa, 0xfb, 0xf7, 0xf6, 0xd9, 0xfd, 0xf6, 0xd9, 0x09, 0xe2, 0xf4, 0xda,
  0x13, 0x10, 0x44, 0xde, 0x3c, 0x49, 0xdb, 0x0c, 0x33, 0x27, 0xf7, 0x04,
  0x1d, 0x11, 0xb5, 0x16, 0x30, 0x02, 0x06, 0xe3, 0x29, 0x41, 0x0c, 0x2b,
  0x2e, 0x31, 0x2e, 0xf2, 0x42, 0x52, 0xca, 0x27, 0x48, 0x2c, 0x16, 0xbd,
  0x30, 0x1f, 0x9b, 0xe7, 0x54, 0x18, 0x1e, 0xad, 0x38, 0x3f, 0xd5, 0xf3,
  0xfe, 0x07, 0x0b, 0xfe, 0x27, 0x3f, 0xcb, 0x1b, 0x4f, 0x0a, 0x04, 0x08,
  0x4b, 0x03, 0x81, 0xd8, 0x0f, 0xe5, 0x23, 0x15, 0x2e, 0xfc, 0xdf, 0x0d,
  0x19, 0x43, 0x04, 0x04, 0x14, 0xf8, 0xe1, 0xf7, 0xf3, 0x3f, 0x16, 0xe8,
  0xed, 0x05, 0xfd, 0xf9, 0xf4, 0x15, 0x0c, 0xf7, 0xe7, 0xe6, 0xcf, 0x05,
  0x15, 0x4c, 0x11, 0xe5, 0x1d, 0x1c, 0xe4, 0xef, 0x25, 0x7f, 0x21, 0xf3,
  0x3a, 0x15, 0xc9, 0x17, 0xfe, 0x55, 0x0c, 0xf2, 0x0b, 0xec, 0xd7, 0xea,
  0x01, 0x11, 0xec, 0xf4, 0xf9, 0xf5, 0x14, 0x01, 0x26, 0x2d, 0x12, 0xf2,
  0x22, 0x1c, 0xf7, 0x0e, 0x18, 0x41, 0x14, 0xed, 0xfe, 0x16, 0x03, 0xf6,
  0x38, 0x0e, 0x0a, 0xc6, 0x3f, 0x07, 0x18, 0x18, 0xfc, 0xf3, 0xfc, 0xc2,
  0x23, 0xf8, 0xcc, 0xde, 0x03, 0xf0, 0x0b, 0x1a, 0x08, 0x0f, 0xcc, 0x07,
  0x19, 0xcb, 0x24, 0xd2, 0x3f, 0x36, 0xd0, 0x26, 0x49, 0xe2, 0x63, 0x41,
  0x38, 0x5a, 0xd7, 0x6b, 0x11, 0xcc, 0x2d, 0x2b, 0x3c, 0x2d, 0xa5, 0x22,
  0x37, 0xbc, 0x2a, 0x0c, 0x35, 0x57, 0xd3, 0x19, 0x42, 0xde, 0x30, 0x7f,
  0x22, 0x61, 0xba, 0x68, 0x0d, 0xc4, 0x09, 0x52, 0x0e, 0x20, 0xdd, 0x0c,
  0x09, 0x30, 0xff, 0xaa, 0x0f, 0x0c, 0x18, 0x18, 0x7a, 0x46, 0x39, 0xf2,
  0x7f, 0x3f, 0xae, 0x1b, 0x46, 0xe0, 0xc6, 0xb0, 0x2c, 0x46, 0xf2, 0x0f,
  0xef, 0xd4, 0x09, 0xf0, 0x4d, 0x1f, 0xda, 0xea, 0x1b, 0x07, 0x7a, 0x2b,
  0x48, 0x45, 0xa9, 0x0b, 0x42, 0xed, 0x14, 0xef, 0xf3, 0x42, 0x95, 0x24,
  0xf0, 0xf6, 0xfa, 0x24, 0x20, 0x14, 0xfe, 0xfc, 0x3f, 0xcb, 0x62, 0x1c,
  0x04, 0x3b, 0x0a, 0x20, 0xfa, 0x96, 0x27, 0x6c, 0xf2, 0x1a, 0x23, 0xf2,
  0x1d, 0x5b, 0x21, 0x13, 0x1f, 0x32, 0x0d, 0xff, 0x45, 0x7f, 0x38, 0xbc,
  0x56, 0x05, 0xb2, 0x0e, 0x35, 0x4c, 0xf9, 0xfb, 0x12, 0xfe, 0xd4, 0x31,
  0x19, 0x32, 0x0e, 0xf6, 0x0a, 0x1f, 0xd4, 0xfb, 0x2e, 0x4b, 0x06, 0xc2,
  0x2b, 0x24, 0xab, 0x16, 0x4b, 0x30, 0x15, 0xba, 0x20, 0x2e, 0xd7, 0x13,
  0x10, 0xf5, 0xe7, 0xf0, 0x12, 0x1c, 0x09, 0x17, 0x2f, 0x2d, 0x03, 0xdf,
  0x08, 0x0a, 0xd3, 0xff, 0x1c, 0x0b, 0x02, 0xff, 0xfb, 0xeb, 0xe0, 0x06,
  0x39, 0x2a, 0x0a, 0xf2, 0x68, 0x55, 0x0d, 0x41, 0x0d, 0xe0, 0xfe, 0xd3,
  0x00, 0x37, 0x40, 0x01, 0xb0, 0xc6, 0xc5, 0xe1, 0xed, 0xc9, 0xf2, 0xc4,
  0x51, 0x35, 0x10, 0x05, 0x7f, 0x42, 0x35, 0x13, 0x1b, 0xfc, 0x12, 0xe3,
  0xf1, 0x1f, 0x32, 0x18, 0xaf, 0xab, 0x95, 0xb4, 0x00, 0x98, 0xc9, 0xa6,
  0x32, 0xd4, 0xf9, 0x21, 0x5b, 0x35, 0x48, 0x1b, 0x26, 0xe7, 0x0b, 0xe1,
  0xfb, 0x3b, 0x12, 0x0a, 0xc7, 0x8a, 0xbc, 0xdd, 0xf4, 0xe0, 0xff, 0xb0,
  0x93, 0x98, 0x95, 0xe6, 0xc2, 0xaf, 0xf8, 0xe6, 0x2d, 0x08, 0x21, 0x09,
  0x28, 0x03, 0xfd, 0x05, 0x38, 0x1c, 0x25, 0xf9, 0x38, 0x2a, 0x0b, 0x0b,
  0x8c, 0xa0, 0x81, 0xc0, 0xa1, 0x9e, 0x03, 0xb7, 0x49, 0x04, 0x16, 0x0b,
  0x52, 0x26, 0x00, 0x1e, 0x3a, 0xef, 0x13, 0x16, 0x29, 0x46, 0x1f, 0x2c,
  0xc0, 0xb8, 0xca, 0xd4, 0xcb, 0xe4, 0x05, 0xe0, 0x23, 0x07, 0x2f, 0x10,
  0x42, 0x28, 0xf9, 0x06, 0x13, 0xf5, 0x33, 0x1d, 0x23, 0x28, 0x22, 0x31,
  0x25, 0xef, 0x24, 0xda, 0x28, 0x0d, 0x02, 0x32, 0x21, 0xf3, 0x1e, 0xc8,
  0x41, 0x43, 0x08, 0xe6, 0xfc, 0xd1, 0x00, 0xcb, 0xd4, 0xef, 0x10, 0xdf,
  0x20, 0x0e, 0x3d, 0xc9, 0x5d, 0x3d, 0x05, 0x1c, 0x79, 0x05, 0x27, 0xf1,
  0x7f, 0x72, 0xc9, 0x43, 0xfb, 0xac, 0x24, 0xc1, 0x2e, 0x13, 0xc0, 0x11,
  0x12, 0x0d, 0xe0, 0xc1, 0x3c, 0x28, 0x01, 0xf8, 0x4b, 0x08, 0x13, 0x19,
  0x51, 0x49, 0xe1, 0x13, 0x42, 0xd2, 0x14, 0x42, 0x05, 0x15, 0xf8, 0x27,
  0x03, 0xc7, 0x1b, 0x48, 0x28, 0x1c, 0x12, 0x12, 0x0d, 0xd8, 0x28, 0x6b,
  0x17, 0x31, 0x3e, 0x54, 0xf3, 0xee, 0x22, 0x5a, 0x30, 0x25, 0x14, 0x1e,
  0x10, 0x9f, 0x27, 0x76, 0xfd, 0x2e, 0x0d, 0x3b, 0xf0, 0xa6, 0x56, 0x7f,
  0x0d, 0x2b, 0x24, 0x63, 0xfd, 0xb6, 0x5a, 0x7b, 0xdd, 0x14, 0x11, 0x37,
  0xdc, 0xdd, 0xf9, 0x46, 0xe7, 0xc7, 0x17, 0xf5, 0xd9, 0xad, 0x18, 0x37,
  0xce, 0xcd, 0x0a, 0x16, 0xb3, 0x9f, 0x03, 0x50, 0xe1, 0xf1, 0x0c, 0x00,
  0x2f, 0x42, 0x47, 0x03, 0x1c, 0x34, 0xb9, 0xf4, 0x2e, 0x76, 0x35, 0xd1,
  0x39, 0x51, 0x9d, 0xcf, 0x2c, 0x4a, 0x33, 0x0c, 0x42, 0x29, 0xae, 0xf8,
  0x3a, 0x50, 0x0c, 0x0d, 0x17, 0x52, 0xe6, 0x2a, 0x5b, 0x64, 0x1c, 0x16,
  0x48, 0x0e, 0xd2, 0x09, 0x3d, 0x04, 0x52, 0x12, 0x37, 0x24, 0xd8, 0xe4,
  0x61, 0x7f, 0x34, 0x39, 0x17, 0x27, 0x1e, 0x2c, 0x58, 0x7a, 0x32, 0x1c,
  0x3b, 0x3e, 0xb3, 0x28, 0xe4, 0xd6, 0x10, 0xfe, 0x19, 0xec, 0x00, 0x09,
  0xec, 0xed, 0x03, 0x5e, 0x0c, 0x01, 0x1a, 0x13, 0xf6, 0x9d, 0x36, 0x7f,
  0xe6, 0x01, 0x47, 0x25, 0xbb, 0xbb, 0x06, 0x49, 0xd9, 0xdf, 0x47, 0x22,
  0xee, 0xa3, 0x3d, 0x4a, 0xc1, 0xf4, 0x04, 0x23, 0xae, 0x8d, 0x21, 0x70,
  0xb1, 0xbb, 0x4f, 0x1c, 0xbc, 0xc1, 0x55, 0x56, 0xc2, 0xff, 0x1f, 0x70,
  0xde, 0x47, 0x06, 0x44, 0xe6, 0xde, 0x0b, 0x06, 0x00, 0x44, 0x1a, 0x2f,
  0x29, 0xf6, 0x06, 0x3d, 0xf8, 0xf0, 0x38, 0x32, 0xdb, 0x1d, 0x10, 0xfa,
  0x39, 0x28, 0xed, 0x33, 0x53, 0x1c, 0x52, 0x3b, 0x01, 0x10, 0x27, 0x39,
  0x0b, 0x28, 0x48, 0x43, 0xa6, 0xbd, 0x9b, 0xe2, 0xdd, 0xde, 0x1a, 0xe9,
  0x2d, 0xf3, 0x01, 0x1a, 0x24, 0x45, 0x47, 0x27, 0x0b, 0x15, 0x20, 0x31,
  0xf7, 0x1a, 0x29, 0x4d, 0x81, 0x9b, 0xb1, 0xe7, 0xa9, 0x83, 0x1e, 0xab,
  0x19, 0xdf, 0xe9, 0x34, 0x14, 0x4e, 0x10, 0x44, 0x27, 0xd4, 0x0b, 0x39,
  0x04, 0x09, 0x27, 0x0a, 0xa6, 0x8d, 0xdf, 0xde, 0xde, 0xb7, 0xfa, 0xb8,
  0x2a, 0x16, 0x2b, 0xf0, 0x62, 0x48, 0x05, 0x26, 0x42, 0xc0, 0x1b, 0x1c,
  0x39, 0x1c, 0x14, 0x54, 0x1d, 0xee, 0xfa, 0x24, 0x0f, 0x1d, 0x00, 0x22,
  0x2e, 0xe5, 0x25, 0x64, 0x30, 0x4d, 0x1c, 0x5f, 0x3b, 0xa0, 0x2c, 0x5d,
  0x13, 0x37, 0x00, 0x6a, 0x34, 0x81, 0x3b, 0x76, 0xff, 0x25, 0xee, 0x60,
  0xf4, 0xda, 0x29, 0x65, 0xf9, 0x14, 0x15, 0x4b, 0xe6, 0x89, 0x3c, 0x54,
  0x0e, 0x0d, 0x2e, 0x39, 0xc5, 0xb9, 0xed, 0x50, 0xcb, 0x1f, 0x27, 0x34,
  0x58, 0xee, 0x00, 0x2d, 0x62, 0x71, 0xb9, 0x23, 0x56, 0x0f, 0x69, 0x3f,
  0x27, 0x57, 0x03, 0x18, 0xeb, 0xad, 0x1c, 0xbb, 0xda, 0xff, 0xaf, 0x14,
  0x2c, 0xaf, 0x04, 0xdf, 0x59, 0x0c, 0xb1, 0x3b, 0x1e, 0xf8, 0x55, 0x0a,
  0x47, 0x60, 0xf1, 0x28, 0x7a, 0x0b, 0x47, 0x32, 0x11, 0x7a, 0xbe, 0x70,
  0x07, 0x81, 0xc0, 0xeb, 0xf8, 0xd1, 0x07, 0xb4, 0xf9, 0xab, 0x12, 0x28,
  0x3f, 0x4b, 0x8f, 0x17, 0x67, 0xd7, 0x4c, 0x5a, 0x5c, 0x6a, 0x2c, 0x4f,
  0x2a, 0xd8, 0xff, 0xff, 0x04, 0x00, 0x00, 0x00, 0x40, 0x00, 0x00, 0x00,
  0x6f, 0x03, 0x00, 0x00, 0x27, 0xfd, 0xff, 0xff, 0x05, 0xfb, 0xff, 0xff,
  0x97, 0x03, 0x00, 0x00, 0x93, 0xfb, 0xff, 0xff, 0xfb, 0xfa, 0xff, 0xff,
  0x9f, 0x01, 0x00, 0x00, 0xfc, 0x06, 0x00, 0x00, 0x21, 0x03, 0x00, 0x00,
  0x9b, 0xfe, 0xff, 0xff, 0x42, 0x02, 0x00, 0x00, 0xf8, 0xf9, 0xff, 0xff,
  0x68, 0x02, 0x00, 0x00, 0x14, 0x08, 0x00, 0x00, 0x62, 0xfe, 0xff, 0xff,
  0xbc, 0xf8, 0xff, 0xff, 0x76, 0xd8, 0xff, 0xff, 0x04, 0x00, 0x00, 0x00,
  0x00, 0x12, 0x00, 0x00, 0x37, 0xf2, 0xd2, 0xdb, 0xff, 0x0e, 0xc7, 0xe5,
  0x1c, 0x41, 0x62, 0xed, 0x4a, 0x10, 0x51, 0x31, 0x48, 0xf2, 0xf7, 0xb0,
  0x24, 0xe9, 0xb0, 0xbd, 0xc3, 0xd3, 0x68, 0xff, 0x47, 0x3b, 0x14, 0x1c,
  0xf9, 0xc0, 0xe8, 0xc2, 0x47, 0xf8, 0xdf, 0xe8, 0x96, 0x1a, 0x35, 0xf8,
  0x27, 0xe3, 0x47, 0x1d, 0xde, 0x36, 0x31, 0x35, 0x0e, 0x0d, 0x24, 0xdc,
  0xa7, 0xe4, 0x00, 0x07, 0x35, 0x0d, 0x06, 0x19, 0xff, 0x0d, 0x1c, 0xe2,
  0x04, 0xfe, 0x21, 0x92, 0xc9, 0xf9, 0x19, 0x10, 0x5b, 0x81, 0xef, 0x1d,
  0x0a, 0xf6, 0x09, 0x20, 0x12, 0x19, 0x25, 0xa2, 0x86, 0x19, 0x12, 0x37,
  0x2e, 0xb4, 0x00, 0x0b, 0xc4, 0x0e, 0x0b, 0x04, 0x17, 0x14, 0x0e, 0xeb,
  0xe9, 0xed, 0xd1, 0x00, 0xcf, 0xf4, 0xba, 0x11, 0x16, 0x2b, 0xf9, 0x0a,
  0xfd, 0x24, 0xf9, 0x8c, 0x9b, 0xe5, 0x04, 0x07, 0xf0, 0x81, 0x06, 0x00,
  0x08, 0x16, 0x04, 0xe5, 0x37, 0x22, 0xf5, 0x0a, 0xee, 0x19, 0x3c, 0xf9,
  0xdb, 0xeb, 0x36, 0x44, 0x22, 0x0d, 0x01, 0xf6, 0x09, 0xf2, 0xf9, 0xbe,
  0x81, 0xe6, 0x10, 0x1a, 0x08, 0xb5, 0xeb, 0x13, 0xf7, 0x35, 0x39, 0x1c,
  0x0a, 0xfe, 0x22, 0xfb, 0xa1, 0x15, 0x0e, 0x1b, 0xf3, 0xd2, 0xed, 0xff,
  0xf9, 0xee, 0xfd, 0x10, 0xfb, 0xd9, 0x0c, 0xea, 0xcd, 0xeb, 0xe9, 0x00,
  0x1c, 0xc5, 0xed, 0xe9, 0xee, 0x04, 0x25, 0x13, 0xf5, 0x26, 0x1b, 0x1a,
  0xd8, 0x14, 0xd3, 0x17, 0xf1, 0xd7, 0x0a, 0x18, 0xf7, 0x03, 0x12, 0x1f,
  0x1a, 0x23, 0x28, 0xca, 0x11, 0x2a, 0xcf, 0x0d, 0xf4, 0xd3, 0x03, 0x1b,
  0xe4, 0x22, 0x16, 0x2d, 0xeb, 0x2a, 0x44, 0xe9, 0xd9, 0x25, 0xe9, 0x1c,
  0xc4, 0xd6, 0x0e, 0x1c, 0xd8, 0x2e, 0x31, 0x1b, 0x12, 0x07, 0x13, 0x31,
  0xb6, 0xf7, 0xd6, 0x2e, 0xd7, 0x07, 0xee, 0x0e, 0x0c, 0x08, 0x29, 0xfc,
  0xec, 0xff, 0x16, 0x0c, 0xeb, 0xeb, 0xf4, 0x1b, 0xd8, 0xea, 0x0a, 0xde,
  0xea, 0xf5, 0x0e, 0x17, 0x02, 0x17, 0xfc, 0x15, 0xdc, 0xff, 0x16, 0x0d,
  0x12, 0xe1, 0x18, 0xfd, 0x1d, 0xd5, 0x39, 0x0a, 0x33, 0x10, 0xe6, 0x44,
  0xd9, 0x1d, 0xca, 0xf1, 0xe9, 0xde, 0x02, 0x07, 0x0b, 0xba, 0xfb, 0x1e,
  0x25, 0x1d, 0xfa, 0x0f, 0xdf, 0x57, 0x81, 0x02, 0xe0, 0x9e, 0xbd, 0x21,
  0xf5, 0xec, 0x16, 0x43, 0x1c, 0x12, 0x0e, 0xae, 0xe9, 0xeb, 0x9f, 0x27,
  0xd9, 0xa6, 0xc7, 0x1f, 0x51, 0x1e, 0x3a, 0xe7, 0x10, 0x25, 0xec, 0xe9,
  0x03, 0x44, 0x11, 0x2c, 0xcd, 0xaf, 0x34, 0x2c, 0x35, 0x23, 0x4d, 0x31,
  0x66, 0x3b, 0x2f, 0x9a, 0xfc, 0x00, 0x25, 0x50, 0xfa, 0xaf, 0x3c, 0x4b,
  0x2f, 0x50, 0x47, 0x1d, 0xfa, 0x3f, 0x14, 0xcc, 0x83, 0xfd, 0x41, 0x47,
  0xeb, 0xbb, 0x14, 0x1a, 0x35, 0x36, 0x13, 0xd0, 0xf1, 0x15, 0x07, 0xba,
  0xdf, 0xe1, 0x02, 0x21, 0xd2, 0xcd, 0x46, 0xe2, 0x03, 0x3d, 0xd6, 0xd6,
  0xfd, 0x17, 0xbe, 0xa7, 0xa2, 0xbb, 0x5e, 0xdf, 0xf7, 0x05, 0x6a, 0x2f,
  0x29, 0xc7, 0x10, 0xf4, 0x09, 0x2f, 0xd2, 0x17, 0xe3, 0x3a, 0x39, 0x15,
  0x18, 0xd0, 0x2b, 0x21, 0xd2, 0x0f, 0xee, 0xec, 0xf4, 0xb9, 0xf9, 0xe2,
  0xb0, 0xee, 0x26, 0x18, 0x26, 0x4a, 0xfd, 0xb8, 0x32, 0xd3, 0xd5, 0xe8,
  0xf6, 0x14, 0xe5, 0x02, 0x3b, 0x11, 0x5a, 0xdd, 0x34, 0xfa, 0x09, 0x13,
  0x30, 0xea, 0xf2, 0xd5, 0xf5, 0x1a, 0xf7, 0xc6, 0xeb, 0xe9, 0x4c, 0xf5,
  0x28, 0xef, 0x1a, 0xe2, 0xa7, 0x33, 0x2b, 0x48, 0x20, 0xcf, 0x0d, 0x0a,
  0xb6, 0xd9, 0xcf, 0xea, 0x35, 0x0b, 0xde, 0x22, 0xb2, 0xf5, 0x00, 0x0f,
  0xc3, 0xe5, 0xe2, 0x0f, 0x58, 0x34, 0xe8, 0xfa, 0xe6, 0x18, 0xa0, 0xd7,
  0xdf, 0xd2, 0xd4, 0xd5, 0xd3, 0xce, 0xbb, 0x40, 0xae, 0x1e, 0xea, 0xe8,
  0x2f, 0x29, 0xfe, 0xd4, 0xaf, 0x25, 0xea, 0x32, 0xc8, 0xf6, 0xfe, 0xee,
  0xe9, 0xe3, 0xe4, 0x2d, 0x27, 0xe9, 0xba, 0xf0, 0xa8, 0xfa, 0x35, 0x4b,
  0xa4, 0x02, 0x49, 0xed, 0x38, 0xfb, 0xa2, 0x34, 0xf6, 0xe0, 0x81, 0x04,
  0xf8, 0xef, 0x16, 0x37, 0xfd, 0xf2, 0x24, 0x5e, 0xe5, 0xe8, 0xde, 0x34,
  0x42, 0x39, 0xd5, 0xf4, 0x1d, 0xf2, 0xf7, 0xb8, 0x15, 0xf4, 0xe8, 0xb0,
  0x22, 0xe2, 0x4f, 0x0e, 0x3e, 0x24, 0x30, 0xfd, 0x16, 0x18, 0x10, 0xe7,
  0x22, 0xf2, 0xe7, 0xbb, 0xdc, 0xda, 0x6c, 0xd9, 0x45, 0x05, 0x37, 0x19,
  0x14, 0x09, 0x16, 0xf6, 0xfc, 0xff, 0x0e, 0x0e, 0xd3, 0x1e, 0x26, 0xe6,
  0x39, 0x01, 0xfa, 0xf0, 0x0e, 0xef, 0xf4, 0x26, 0x19, 0x0c, 0xfc, 0xf3,
  0xa0, 0x00, 0xe1, 0x11, 0x07, 0xd9, 0xe8, 0x18, 0xcb, 0xff, 0x18, 0x07,
  0xe3, 0xc8, 0x0c, 0xb4, 0x81, 0xee, 0xf8, 0xfe, 0x26, 0xc4, 0xc9, 0xf7,
  0x0c, 0xfc, 0xf2, 0x0d, 0xd6, 0xd6, 0x18, 0xd7, 0xfe, 0x11, 0xff, 0x0f,
  0x26, 0xe5, 0xfd, 0xf2, 0x05, 0xe6, 0x34, 0x17, 0x28, 0x2d, 0x19, 0x43,
  0xe0, 0x3c, 0xe5, 0xea, 0xbd, 0xd5, 0x11, 0x43, 0xfc, 0x1f, 0x18, 0x0b,
  0x20, 0x2c, 0x17, 0xcf, 0xf3, 0x25, 0xf6, 0x13, 0xda, 0xd5, 0x18, 0x2a,
  0xec, 0x2b, 0x29, 0x16, 0x2b, 0x31, 0x01, 0xef, 0xc1, 0x07, 0x0e, 0x3a,
  0xe4, 0x00, 0xf6, 0x07, 0x17, 0xdf, 0x0d, 0xee, 0x04, 0x0f, 0xd7, 0xe3,
  0xff, 0xfb, 0x26, 0x14, 0x47, 0xfb, 0x13, 0x04, 0x0e, 0x0d, 0x24, 0x24,
  0x1f, 0x01, 0x02, 0x24, 0xd2, 0x2c, 0x24, 0x22, 0x05, 0x37, 0x08, 0x13,
  0xe4, 0xd6, 0xec, 0xfb, 0xe7, 0xbd, 0xd9, 0xd7, 0x81, 0xbb, 0x10, 0xee,
  0x3e, 0xe6, 0xcd, 0xb9, 0x1b, 0xf7, 0x3e, 0xf4, 0xfa, 0x20, 0x39, 0x03,
  0xfd, 0x2c, 0xc5, 0xfc, 0xd1, 0xfb, 0xea, 0x0a, 0x38, 0x01, 0x07, 0xf6,
  0x2e, 0xe8, 0xee, 0x43, 0x25, 0x18, 0x1a, 0xfd, 0x23, 0x4a, 0x09, 0xf2,
  0xd9, 0xe1, 0xef, 0xe4, 0xf7, 0xfa, 0xea, 0x19, 0xf2, 0xf4, 0xf1, 0xfb,
  0x06, 0x17, 0xe9, 0xe3, 0x1f, 0xf9, 0x12, 0xe4, 0x25, 0xf9, 0x0a, 0x1d,
  0x41, 0x0e, 0xda, 0x00, 0xe1, 0x29, 0x24, 0x0b, 0x49, 0xfb, 0x0b, 0xf0,
  0x2a, 0x19, 0x05, 0x27, 0xf1, 0x26, 0x25, 0x1b, 0x33, 0x14, 0x24, 0xff,
  0xf6, 0xe9, 0xe1, 0xc2, 0xeb, 0xdf, 0xe2, 0x2e, 0xdc, 0xe5, 0xfc, 0xdf,
  0xe3, 0x38, 0x10, 0xed, 0xe3, 0x1f, 0xd9, 0x0a, 0xc6, 0xeb, 0xf2, 0x05,
  0x3c, 0xfd, 0xbc, 0xf8, 0xc5, 0x2a, 0xe0, 0xd6, 0xdc, 0xc2, 0xe3, 0xea,
  0xe3, 0xf4, 0x1c, 0x53, 0x00, 0x08, 0xd4, 0xfb, 0x0a, 0x41, 0xd8, 0xe2,
  0x12, 0xe1, 0x15, 0xf2, 0x21, 0x0d, 0x0a, 0x0a, 0x33, 0xf1, 0xf5, 0x1b,
  0xdc, 0x30, 0xe0, 0x10, 0x0d, 0x0c, 0x21, 0xed, 0x1b, 0xe6, 0xfe, 0xdb,
  0xe7, 0xf5, 0x13, 0xf4, 0xf1, 0x08, 0xfc, 0xfa, 0x2d, 0x06, 0x13, 0xf2,
  0xfb, 0x27, 0x11, 0x7f, 0x5b, 0x36, 0xfb, 0x21, 0x98, 0x2c, 0x12, 0x2f,
  0x16, 0xc4, 0x26, 0xf4, 0x29, 0x13, 0xcb, 0x1b, 0x3d, 0x2c, 0x23, 0xea,
  0xfb, 0xfd, 0x18, 0x10, 0x02, 0xfa, 0xe3, 0xbc, 0xe4, 0xea, 0xc3, 0xf8,
  0xeb, 0xf6, 0x19, 0xda, 0xf3, 0xe5, 0xcf, 0xe5, 0x12, 0xf7, 0x2c, 0xf1,
  0x58, 0x2e, 0x07, 0x29, 0x7b, 0x62, 0xca, 0x24, 0x9c, 0x11, 0x12, 0x47,
  0x46, 0x04, 0xfd, 0x19, 0x14, 0xff, 0xd2, 0x17, 0x00, 0x14, 0x01, 0x2a,
  0xc1, 0xe4, 0x38, 0x34, 0x0c, 0x04, 0x19, 0x09, 0x16, 0x36, 0x16, 0x1c,
  0x1d, 0x10, 0xf9, 0x29, 0xdd, 0x12, 0x1f, 0x1b, 0x44, 0x04, 0x07, 0x15,
  0x36, 0x2b, 0x30, 0x3c, 0x0b, 0x3e, 0x0d, 0x02, 0x0b, 0x46, 0x0c, 0x34,
  0xee, 0x01, 0x06, 0xf7, 0xca, 0x06, 0x15, 0x15, 0x19, 0xd5, 0x20, 0xe7,
  0xe4, 0x33, 0xe8, 0x02, 0x1b, 0xe4, 0xf1, 0xcd, 0xef, 0x14, 0xee, 0x1b,
  0x0b, 0xf5, 0x1c, 0xf1, 0x0b, 0x3c, 0x19, 0x0e, 0x35, 0xe3, 0xd2, 0xd0,
  0xfc, 0x02, 0xd4, 0x09, 0x20, 0xdb, 0x10, 0xdd, 0x32, 0x35, 0x27, 0x0b,
  0xf1, 0x95, 0xf2, 0x88, 0xc7, 0xa6, 0xaf, 0x03, 0x04, 0xb0, 0xe5, 0xc2,
  0xef, 0x13, 0xd6, 0x94, 0x02, 0xd4, 0xd1, 0xe4, 0x0d, 0xda, 0xae, 0xd3,
  0x39, 0x07, 0x27, 0xcf, 0x4f, 0x05, 0x0c, 0xe0, 0x13, 0xd6, 0xab, 0xce,
  0xd9, 0xe2, 0xa5, 0xdb, 0x15, 0xe0, 0x4f, 0x00, 0x52, 0x3f, 0x1e, 0xff,
  0xfe, 0xd8, 0xae, 0x9d, 0x01, 0xfd, 0x81, 0x29, 0xcf, 0xe7, 0x35, 0xe7,
  0x31, 0x55, 0x19, 0xc9, 0xf2, 0x14, 0x23, 0x0f, 0x19, 0xfc, 0x34, 0xe5,
  0xd4, 0x0e, 0xd2, 0x2c, 0x14, 0xbb, 0x0e, 0x00, 0xd4, 0x16, 0x37, 0x29,
  0xf6, 0xfe, 0x41, 0xca, 0xaa, 0x02, 0xea, 0x06, 0x06, 0xdb, 0xfc, 0xfe,
  0x2e, 0xed, 0x09, 0x0a, 0x1d, 0xe9, 0xf8, 0x06, 0x07, 0x1b, 0x04, 0x0a,
  0x23, 0x0e, 0x23, 0x2f, 0x0f, 0x10, 0x1c, 0x31, 0xff, 0x06, 0x0c, 0x0c,
  0xdd, 0x0b, 0xec, 0x1f, 0xd5, 0x1c, 0xfc, 0x26, 0xee, 0x1b, 0x20, 0xf6,
  0xf3, 0x2c, 0x20, 0xdc, 0x25, 0xee, 0xd6, 0x0f, 0xef, 0xce, 0xf1, 0x33,
  0x3b, 0x2b, 0x03, 0x04, 0x1f, 0x18, 0x01, 0x03, 0x0f, 0xf7, 0x3f, 0x10,
  0x49, 0x0f, 0x2b, 0x05, 0x0a, 0xe1, 0x0d, 0xee, 0x17, 0x11, 0x26, 0x22,
  0x37, 0x0d, 0xd1, 0x14, 0xef, 0xfa, 0xea, 0x28, 0x32, 0x0c, 0x17, 0xf7,
  0x1f, 0xed, 0x06, 0x0f, 0x23, 0x0e, 0xf6, 0x18, 0xe2, 0x0f, 0x19, 0xed,
  0x10, 0xe3, 0xd5, 0xd4, 0xc6, 0xc5, 0xdf, 0xc6, 0x81, 0xb8, 0x18, 0xd2,
  0x3e, 0x02, 0x1a, 0xd1, 0xe9, 0xb5, 0xfe, 0xb5, 0xfe, 0xf9, 0xed, 0xdf,
  0x27, 0xd1, 0xd7, 0xbd, 0x27, 0x00, 0xb3, 0xea, 0xf6, 0x07, 0x3d, 0x1b,
  0x1c, 0x37, 0x2b, 0x46, 0x3b, 0x23, 0x12, 0xe5, 0xb8, 0x34, 0x28, 0xf9,
  0x0a, 0xcb, 0xd0, 0xcb, 0x0f, 0xe5, 0xe8, 0x0c, 0x06, 0xe2, 0x01, 0xde,
  0xfc, 0x0b, 0xfb, 0xe2, 0x43, 0xfa, 0x2f, 0xe6, 0x28, 0x21, 0xff, 0xfe,
  0x13, 0x17, 0x11, 0x17, 0x02, 0xfd, 0x13, 0x28, 0x4e, 0xde, 0xd4, 0xd0,
  0x4b, 0xe9, 0xd5, 0x0d, 0x7f, 0x0a, 0x30, 0xec, 0xbf, 0xd9, 0x35, 0x04,
  0x09, 0x05, 0xdf, 0x33, 0x2d, 0xf3, 0xe3, 0xcd, 0xf0, 0x26, 0x5a, 0xf6,
  0x2a, 0x00, 0x43, 0x15, 0x0c, 0xfb, 0xec, 0x1a, 0xfe, 0x1a, 0xcb, 0xf5,
  0x18, 0xe2, 0x2e, 0x05, 0x04, 0xdc, 0x1c, 0xf2, 0x0a, 0xf0, 0x21, 0x09,
  0x2a, 0xd1, 0xf5, 0x98, 0xd9, 0xff, 0xf2, 0xfc, 0x0a, 0x98, 0x16, 0xf2,
  0xe8, 0xfc, 0x16, 0x1f, 0xf5, 0x0b, 0x14, 0xce, 0xac, 0x21, 0xfc, 0x26,
  0x20, 0xc2, 0xeb, 0x20, 0x0f, 0x15, 0x01, 0x1c, 0xe2, 0xef, 0xee, 0x45,
  0x7a, 0xc9, 0x47, 0xdf, 0x24, 0xfa, 0x12, 0x3f, 0xdd, 0x19, 0xf6, 0x19,
  0xe4, 0xe9, 0x06, 0xef, 0xe4, 0xe2, 0xed, 0xf7, 0x33, 0xdc, 0xfa, 0x14,
  0xcf, 0x37, 0xfd, 0x49, 0xec, 0x04, 0x2c, 0x15, 0x06, 0xeb, 0x04, 0x3d,
  0x3a, 0xd4, 0xec, 0x0e, 0x23, 0xcd, 0x06, 0xe9, 0x12, 0xee, 0xfe, 0x3d,
  0x71, 0x11, 0xdc, 0xf2, 0xe1, 0x41, 0x1b, 0xd3, 0xe6, 0x0c, 0x0f, 0xe7,
  0x1d, 0x1a, 0x27, 0x1a, 0x48, 0xe8, 0xdd, 0x16, 0xe3, 0x01, 0xcf, 0xf7,
  0xc9, 0x11, 0xde, 0xd4, 0xee, 0xd9, 0x15, 0x3e, 0xa6, 0xc7, 0xcf, 0xff,
  0xea, 0x37, 0xfe, 0xbb, 0x14, 0xd7, 0x05, 0x15, 0x03, 0xe9, 0x10, 0x02,
  0x31, 0xf6, 0xd5, 0xf5, 0x26, 0x26, 0xfa, 0x22, 0x39, 0x1d, 0x1d, 0x0e,
  0xfd, 0x23, 0x16, 0x23, 0x37, 0x2e, 0x21, 0x13, 0x0c, 0x2e, 0x13, 0x2a,
  0xe0, 0xae, 0xc6, 0x92, 0xd6, 0xc3, 0x81, 0x17, 0x9e, 0xb7, 0xfd, 0xb7,
  0x0e, 0x55, 0x03, 0xa5, 0x27, 0xce, 0xd0, 0xc1, 0x2c, 0xf2, 0x16, 0x38,
  0x2d, 0x0b, 0x21, 0xfb, 0xca, 0x14, 0x28, 0xdd, 0x21, 0xcd, 0xc9, 0xfc,
  0x22, 0x0c, 0xc0, 0xff, 0x2c, 0x01, 0x3d, 0xc9, 0x01, 0x79, 0x48, 0x4a,
  0xf4, 0xeb, 0xd8, 0x09, 0x3f, 0x26, 0xcd, 0x20, 0x36, 0xe7, 0x0a, 0x16,
  0x08, 0x2a, 0x35, 0xea, 0x64, 0x96, 0x17, 0x9d, 0x0f, 0x16, 0x9f, 0xed,
  0x62, 0x46, 0x4c, 0xf5, 0xfd, 0x05, 0x44, 0x17, 0x66, 0xa6, 0xef, 0xb2,
  0x0a, 0x2b, 0xc0, 0x20, 0x24, 0x01, 0x71, 0xcb, 0x24, 0x7f, 0x34, 0x0c,
  0x4c, 0xde, 0xde, 0xa2, 0xe4, 0xc7, 0xd6, 0x54, 0xfc, 0xeb, 0x53, 0xb4,
  0x25, 0x49, 0x33, 0x18, 0x17, 0xbb, 0xeb, 0x10, 0xe0, 0xfa, 0xd5, 0xf1,
  0x4c, 0xed, 0x1c, 0xe0, 0x1e, 0x2b, 0xea, 0x37, 0x18, 0xc1, 0x0a, 0xc8,
  0xea, 0x13, 0xe6, 0xf3, 0x05, 0x1e, 0x63, 0xcf, 0x44, 0x0f, 0x20, 0x08,
  0x00, 0xc2, 0x24, 0xcf, 0x11, 0xc7, 0xb3, 0x28, 0xc8, 0x0d, 0x26, 0xc4,
  0x35, 0x3d, 0xfe, 0x3f, 0x0d, 0x21, 0xe8, 0xc9, 0xeb, 0x2b, 0xda, 0x05,
  0xff, 0xe7, 0x0e, 0x13, 0x23, 0xd7, 0x29, 0xfa, 0xdf, 0xe7, 0x1f, 0x0e,
  0xfc, 0xeb, 0xf5, 0xe6, 0xec, 0x03, 0xc2, 0xdb, 0xf5, 0xe2, 0xe9, 0x08,
  0xcf, 0x02, 0x2f, 0x0d, 0x0b, 0xf6, 0x10, 0x38, 0x1e, 0x13, 0x99, 0xf8,
  0xdc, 0x14, 0xe0, 0x0a, 0x10, 0xe8, 0xe8, 0xd8, 0xfd, 0xd4, 0xd4, 0x2a,
  0xe1, 0x09, 0x22, 0xe8, 0x42, 0x2d, 0x21, 0x03, 0xe3, 0xa0, 0xca, 0x8e,
  0xbc, 0xd6, 0xee, 0xf7, 0x45, 0xb0, 0x12, 0xdd, 0xcb, 0x26, 0xd6, 0xf7,
  0x17, 0x37, 0x48, 0x23, 0x03, 0x40, 0x3d, 0x5b, 0x77, 0x54, 0xee, 0x13,
  0xb3, 0x56, 0x22, 0x34, 0x59, 0xec, 0xf2, 0x06, 0x3c, 0x1e, 0xea, 0x03,
  0x01, 0x2f, 0x33, 0x13, 0x31, 0xed, 0x2b, 0x32, 0xed, 0xd7, 0xd8, 0xa4,
  0xee, 0xfb, 0xda, 0x39, 0x2c, 0xea, 0x0f, 0xe9, 0xf8, 0x3b, 0x20, 0xc6,
  0x1f, 0x0d, 0x0f, 0xdb, 0xf3, 0x0b, 0x0d, 0x7f, 0x5e, 0xf8, 0x08, 0x0e,
  0xe8, 0x67, 0x2e, 0x08, 0xdc, 0x05, 0x0c, 0xcf, 0x26, 0xcb, 0xd3, 0x63,
  0x05, 0xfc, 0x15, 0xdc, 0x1b, 0x33, 0x0d, 0x58, 0xa5, 0x01, 0x03, 0xf2,
  0xd8, 0xd7, 0xdf, 0x03, 0x3b, 0xe9, 0xc2, 0x1c, 0x9e, 0x1a, 0xed, 0x02,
  0x21, 0xde, 0xf1, 0x00, 0x57, 0x1c, 0xf3, 0xe3, 0x2c, 0xe8, 0x24, 0x33,
  0x2e, 0x46, 0x19, 0x09, 0x23, 0xf3, 0x43, 0xea, 0x11, 0xfc, 0x13, 0xd2,
  0xee, 0x25, 0x25, 0x1f, 0xad, 0x18, 0x05, 0x2c, 0x26, 0x26, 0x05, 0x45,
  0x60, 0x03, 0x13, 0x52, 0x76, 0x6a, 0xf6, 0x1d, 0x81, 0x3f, 0x24, 0x1c,
  0x15, 0x25, 0xd8, 0x15, 0x2f, 0xdb, 0xdf, 0xc0, 0xa3, 0x04, 0x59, 0x1b,
  0x26, 0xfb, 0x26, 0xf7, 0xd6, 0xe2, 0xf6, 0xb3, 0xf1, 0xc8, 0xc7, 0x41,
  0x06, 0x1b, 0xf6, 0xde, 0xe7, 0x42, 0xf9, 0xcd, 0x4c, 0x06, 0xf0, 0x0f,
  0x27, 0x17, 0xe2, 0xe0, 0x5b, 0xdc, 0x3d, 0xe7, 0xdd, 0x0c, 0x26, 0x1d,
  0x01, 0x43, 0xed, 0x27, 0x18, 0x26, 0x1d, 0xda, 0xb7, 0x2f, 0x42, 0x2c,
  0x08, 0xea, 0x0f, 0xf9, 0xae, 0xcc, 0xec, 0x0f, 0x2f, 0xee, 0x06, 0x05,
  0xe0, 0x12, 0x01, 0xed, 0xd7, 0x9e, 0xdd, 0x2d, 0xea, 0xee, 0xdf, 0x28,
  0x09, 0x13, 0xed, 0x3b, 0xd6, 0x37, 0xe0, 0xf1, 0x1a, 0xd2, 0xe7, 0xf9,
  0x3e, 0x15, 0x39, 0xea, 0x1e, 0x2f, 0x35, 0xc9, 0xff, 0x35, 0xde, 0xe7,
  0xc2, 0xc7, 0x34, 0x53, 0x06, 0x0d, 0x3e, 0x38, 0x5f, 0x27, 0xf1, 0xb9,
  0xff, 0x41, 0x25, 0x1a, 0xdd, 0xdd, 0x2a, 0x10, 0xf2, 0xf6, 0xff, 0x22,
  0x09, 0x2c, 0x0e, 0x33, 0x00, 0x32, 0xe5, 0x33, 0xdb, 0x0a, 0xf7, 0x44,
  0x28, 0xc1, 0xf2, 0xe0, 0x10, 0xe6, 0xd8, 0xf0, 0x21, 0x31, 0xf6, 0x0d,
  0xc1, 0xe2, 0xfb, 0xf0, 0x03, 0xd0, 0x18, 0xe6, 0xfb, 0xfd, 0xf0, 0x8f,
  0x31, 0xd0, 0x15, 0xe0, 0x15, 0x81, 0xfe, 0x43, 0x25, 0x27, 0x04, 0x06,
  0x2f, 0x08, 0xed, 0x34, 0x18, 0x39, 0x33, 0x08, 0xef, 0x3b, 0x08, 0x12,
  0x22, 0xea, 0xef, 0xe8, 0xfe, 0xe5, 0xdb, 0x14, 0x4e, 0x03, 0x3e, 0x01,
  0xd9, 0x18, 0x2a, 0x02, 0x10, 0xf7, 0x16, 0xf1, 0xfb, 0x0d, 0x02, 0xe2,
  0x14, 0x15, 0x15, 0x0c, 0x05, 0x00, 0x13, 0x03, 0x19, 0xf5, 0x12, 0x08,
  0x12, 0x0b, 0x01, 0xca, 0xf0, 0x12, 0x2e, 0x11, 0x0d, 0xc3, 0x1c, 0x05,
  0x11, 0xf3, 0x0f, 0xe3, 0xff, 0x16, 0xf9, 0xd4, 0xde, 0x21, 0xef, 0x1f,
  0xf2, 0xd3, 0x22, 0x2b, 0x40, 0x04, 0x0a, 0xf2, 0x35, 0x32, 0x11, 0xc7,
  0x0e, 0x15, 0x41, 0x0c, 0x28, 0xec, 0x44, 0xf3, 0xfc, 0x22, 0xf4, 0x07,
  0x31, 0x24, 0x06, 0xc3, 0xf9, 0x2f, 0x39, 0x0c, 0x2b, 0xd0, 0x2b, 0x0f,
  0xf9, 0x15, 0x24, 0x12, 0x32, 0x29, 0x07, 0x12, 0xe5, 0x43, 0xeb, 0x26,
  0xff, 0xea, 0x18, 0x23, 0xec, 0x0a, 0xf5, 0xf5, 0xdc, 0xeb, 0xd6, 0xe3,
  0x89, 0xf3, 0x06, 0x02, 0x1b, 0xfe, 0xdb, 0xd6, 0xfa, 0x02, 0xf0, 0xc0,
  0xdc, 0xff, 0xf7, 0x81, 0xd8, 0xa7, 0x1b, 0xf2, 0x2f, 0xaa, 0xe7, 0xd7,
  0x05, 0xe6, 0x0c, 0xdc, 0xe6, 0x01, 0x0d, 0xfe, 0x24, 0xe9, 0x27, 0x02,
  0x15, 0xee, 0xff, 0x24, 0xbe, 0xda, 0xd3, 0x08, 0xe9, 0xf8, 0xd4, 0xd0,
  0xef, 0xd3, 0xb8, 0xd2, 0x3d, 0xcd, 0xb1, 0xd7, 0xc3, 0xca, 0xe2, 0xec,
  0xef, 0xdd, 0x07, 0xb1, 0xb0, 0xe6, 0xd0, 0x13, 0xdb, 0x87, 0xc7, 0x06,
  0xa9, 0xe7, 0x1a, 0x19, 0xd0, 0xff, 0xfe, 0xed, 0xaf, 0x0b, 0x05, 0xef,
  0x17, 0xcb, 0xd3, 0x17, 0x1e, 0x19, 0x50, 0x67, 0x66, 0x2c, 0x63, 0x26,
  0x31, 0x48, 0x04, 0x50, 0xc6, 0xc7, 0x22, 0x7f, 0x05, 0x1f, 0x5a, 0x6f,
  0x40, 0x34, 0x43, 0xb1, 0xd2, 0x22, 0x0d, 0x5f, 0xc5, 0xa2, 0x24, 0x1a,
  0xf2, 0x17, 0x27, 0x24, 0xf6, 0x0f, 0x08, 0xf2, 0xc4, 0x0b, 0xdf, 0x05,
  0xac, 0xbc, 0xdb, 0xe6, 0xf3, 0xd8, 0x39, 0x19, 0x3b, 0xfe, 0x28, 0xfc,
  0xf5, 0x10, 0x11, 0xe9, 0xdc, 0xb8, 0x13, 0x2d, 0xf4, 0x33, 0x41, 0x53,
  0x33, 0x22, 0x31, 0xc6, 0xbc, 0x40, 0xd6, 0x28, 0x23, 0xd7, 0x25, 0x58,
  0xf6, 0x24, 0x27, 0x3b, 0x36, 0x0a, 0x0f, 0xf8, 0xd7, 0x10, 0x3c, 0x3f,
  0xfa, 0xfc, 0x34, 0x27, 0x1b, 0xe4, 0xf2, 0xbd, 0x0b, 0xf9, 0xe3, 0x34,
  0x27, 0x1e, 0xf0, 0x0f, 0x0a, 0xe4, 0xf2, 0x3f, 0xf3, 0xe4, 0xfe, 0x2e,
  0x25, 0x01, 0x0a, 0x23, 0x3a, 0x04, 0xe9, 0x08, 0xe4, 0x2f, 0x0b, 0x0f,
  0x1a, 0xe9, 0xf8, 0x1c, 0x08, 0x00, 0xf8, 0xdb, 0xce, 0x16, 0x28, 0xfc,
  0x46, 0x27, 0x0f, 0xda, 0x03, 0xfc, 0x2a, 0xda, 0x07, 0x0f, 0xe9, 0x05,
  0x48, 0x04, 0x08, 0x09, 0xdd, 0xfa, 0x07, 0x0c, 0x22, 0x02, 0x12, 0xd2,
  0x40, 0x1f, 0xf9, 0x09, 0x5f, 0x30, 0x21, 0x24, 0x08, 0x3c, 0x54, 0x0c,
  0x05, 0x06, 0xdb, 0xf7, 0xed, 0xfb, 0x04, 0xd1, 0x81, 0xda, 0x3e, 0xd5,
  0x36, 0x12, 0x05, 0xda, 0x05, 0x11, 0xf6, 0x12, 0x2f, 0x0f, 0x0e, 0xf4,
  0x36, 0x1f, 0x02, 0x1d, 0x01, 0x27, 0x1a, 0x0f, 0xf8, 0xea, 0xf0, 0xbd,
  0xb6, 0xd5, 0xeb, 0x13, 0xd3, 0xd4, 0x38, 0xe4, 0x33, 0x34, 0x25, 0xeb,
  0xd0, 0xda, 0xce, 0x08, 0xe1, 0xf4, 0xf0, 0xc6, 0xee, 0xe5, 0xd8, 0xd5,
  0x04, 0xcf, 0xac, 0xda, 0xa6, 0x44, 0x64, 0x23, 0xb3, 0xcd, 0x42, 0x23,
  0xac, 0x39, 0x9f, 0x61, 0xd3, 0xe9, 0xbf, 0x1a, 0xbe, 0xf3, 0xf8, 0x26,
  0x0c, 0xe7, 0x09, 0x30, 0xe2, 0x1c, 0xb3, 0xda, 0xa3, 0xbe, 0xde, 0xe9,
  0xd9, 0x1a, 0x39, 0xe0, 0x1a, 0x15, 0x21, 0xdf, 0x4b, 0x68, 0xb9, 0x36,
  0xd8, 0xb6, 0xd8, 0x60, 0xad, 0x7f, 0x30, 0x74, 0x07, 0x47, 0x25, 0xb6,
  0xfa, 0x01, 0xa4, 0x59, 0xb6, 0xae, 0xc3, 0xf7, 0x23, 0x03, 0x12, 0x43,
  0x1a, 0x45, 0x40, 0xbf, 0xc0, 0x2c, 0x0d, 0x5a, 0xe0, 0xae, 0x11, 0x00,
  0x25, 0x36, 0x41, 0xed, 0xfd, 0x53, 0x1d, 0x1a, 0x53, 0x50, 0xec, 0xf1,
  0xd5, 0xef, 0x10, 0xfd, 0x0f, 0x40, 0x27, 0x40, 0x22, 0xf6, 0x0e, 0xf4,
  0xbb, 0xf6, 0x24, 0x45, 0x34, 0xdd, 0x27, 0xd2, 0xba, 0x2d, 0x49, 0x53,
  0xf2, 0x2d, 0x53, 0xbc, 0x88, 0xf2, 0xb1, 0x49, 0xfc, 0xb2, 0xf0, 0x08,
  0xb0, 0x57, 0x10, 0x62, 0xe2, 0x08, 0xfc, 0xc8, 0xe3, 0xfc, 0x09, 0x18,
  0xcb, 0x99, 0xce, 0x21, 0x38, 0x41, 0x14, 0x07, 0x0c, 0x35, 0x0a, 0xe6,
  0xe8, 0x05, 0x33, 0x0e, 0x16, 0x05, 0x1e, 0x0f, 0x3c, 0x0f, 0x0f, 0xf5,
  0x1e, 0x22, 0xe9, 0xe9, 0xf1, 0xf6, 0x7f, 0xf3, 0x72, 0xfc, 0x54, 0x29,
  0x20, 0x32, 0x11, 0x11, 0x13, 0x28, 0x1d, 0xeb, 0xd6, 0xfb, 0x4c, 0x21,
  0x28, 0x02, 0x3c, 0x2b, 0xc0, 0xd5, 0xd9, 0xfc, 0xc4, 0xd5, 0xe1, 0xea,
  0xec, 0x09, 0xc0, 0xd6, 0x0f, 0xd2, 0xc4, 0xe6, 0xe0, 0xdf, 0xe1, 0xd9,
  0xed, 0xd3, 0xd8, 0xd8, 0xdf, 0xee, 0x08, 0xfc, 0x1b, 0x00, 0xf4, 0xec,
  0x1d, 0x13, 0x1c, 0xfb, 0x10, 0x1f, 0xfe, 0xf8, 0x0a, 0x10, 0x02, 0x1e,
  0x2a, 0xe5, 0xfb, 0x16, 0xd6, 0x02, 0x0f, 0x2a, 0xe6, 0xfa, 0x1d, 0x20,
  0x22, 0x08, 0xb3, 0x08, 0xe0, 0x17, 0xcc, 0xc8, 0xd8, 0xfc, 0xf5, 0x13,
  0xbd, 0xe2, 0x15, 0x03, 0xf3, 0xef, 0xc8, 0xee, 0xd3, 0xff, 0xc6, 0xd8,
  0xfe, 0x0d, 0x09, 0x14, 0xff, 0x2b, 0x13, 0xde, 0x0b, 0x13, 0xfa, 0x13,
  0x19, 0xd9, 0xf3, 0xff, 0x18, 0x12, 0xe3, 0xfc, 0x0a, 0xf0, 0x0d, 0xf8,
  0x1f, 0xe5, 0x1b, 0xf8, 0x33, 0xfd, 0x0a, 0x09, 0x18, 0x13, 0xe7, 0x01,
  0x01, 0x09, 0x02, 0xd4, 0xcf, 0xe5, 0x25, 0xf4, 0x3f, 0xe6, 0x3e, 0xfe,
  0xfe, 0x01, 0x1e, 0xd1, 0x09, 0x1c, 0x22, 0x01, 0xff, 0x1f, 0xe4, 0x22,
  0xf8, 0xc4, 0x03, 0x11, 0xde, 0x4a, 0x18, 0x4c, 0xea, 0xe6, 0x2a, 0xce,
  0xcb, 0xf0, 0x1f, 0x02, 0x43, 0xeb, 0xf3, 0x26, 0xe0, 0x0d, 0x00, 0x5c,
  0xe7, 0xfb, 0x2a, 0xf0, 0x81, 0xfe, 0xfe, 0x15, 0x28, 0x0b, 0xfe, 0xf1,
  0x16, 0x0e, 0x24, 0x17, 0xdc, 0xff, 0x07, 0x03, 0xeb, 0x23, 0xc8, 0xf6,
  0xae, 0xe2, 0xd3, 0xe0, 0xe4, 0xc9, 0xe4, 0xc9, 0x29, 0x13, 0x0a, 0x0a,
  0xf4, 0xf9, 0xd4, 0xf2, 0xd3, 0x27, 0x02, 0xd9, 0xf0, 0x41, 0x2c, 0x46,
  0x09, 0x2c, 0x34, 0xe8, 0x43, 0x0a, 0xec, 0x2b, 0xbd, 0x0b, 0xea, 0xf1,
  0xd1, 0x34, 0x25, 0x43, 0xef, 0x06, 0x11, 0xd6, 0xf1, 0xd9, 0xbc, 0xfd,
  0xdc, 0xda, 0x03, 0xe9, 0xe2, 0xd5, 0xb1, 0xbf, 0x13, 0x02, 0xf1, 0xfb,
  0x3f, 0xc0, 0x28, 0xc4, 0x41, 0x49, 0xee, 0x0c, 0xc6, 0xe4, 0xe2, 0xd2,
  0xe6, 0xbd, 0xcd, 0x6a, 0x6c, 0xeb, 0xe0, 0xd2, 0x06, 0x7f, 0xca, 0x02,
  0x0b, 0xd0, 0xf6, 0xe3, 0x20, 0xfb, 0x10, 0xde, 0x16, 0x1e, 0xff, 0xe2,
  0xf6, 0x43, 0xf8, 0x04, 0x09, 0xc5, 0xee, 0xf9, 0xe9, 0xf6, 0xc7, 0x03,
  0x60, 0xf8, 0x17, 0xe8, 0xcd, 0x20, 0xd6, 0xe1, 0x24, 0x1b, 0x1a, 0xf5,
  0xe0, 0x2c, 0x15, 0x67, 0x77, 0xf6, 0xea, 0x01, 0x90, 0x6a, 0x03, 0xe7,
  0x3f, 0x2d, 0x23, 0x17, 0x1a, 0x14, 0x1c, 0x53, 0x05, 0x46, 0x0d, 0xfd,
  0xba, 0x23, 0xed, 0x1e, 0x3b, 0xef, 0xf8, 0xe5, 0x1a, 0x2d, 0x0b, 0x51,
  0x6c, 0x0d, 0x36, 0xfe, 0xcb, 0x46, 0x28, 0x2f, 0xfd, 0xf2, 0x22, 0x09,
  0x1a, 0x20, 0x04, 0x60, 0x55, 0x35, 0xd3, 0xd3, 0x8a, 0x4d, 0x03, 0x35,
  0xe3, 0xd9, 0x00, 0xf1, 0x38, 0x26, 0xed, 0x13, 0xfc, 0x35, 0xe6, 0xdf,
  0xab, 0x1e, 0x02, 0xd6, 0x0c, 0x2f, 0x08, 0xf3, 0x20, 0x25, 0x03, 0x0d,
  0x32, 0x21, 0xfb, 0x28, 0xdd, 0xb3, 0xec, 0x0d, 0xd0, 0xf8, 0xf5, 0x2f,
  0x13, 0xf4, 0xed, 0x5c, 0xe0, 0x29, 0xd5, 0x0a, 0xe3, 0x1a, 0xfc, 0xf8,
  0xe0, 0xa7, 0xf1, 0xda, 0xd8, 0xea, 0xe5, 0xf4, 0x11, 0xf7, 0xbe, 0xd7,
  0x05, 0xc7, 0xb3, 0x0b, 0x28, 0xec, 0xe4, 0xc9, 0x25, 0x15, 0xfc, 0xf2,
  0x23, 0xf8, 0x37, 0xec, 0xf1, 0x19, 0x31, 0x13, 0x34, 0xf0, 0x06, 0x10,
  0x26, 0x1b, 0x00, 0x14, 0x0f, 0x2d, 0x26, 0x1d, 0xf4, 0xf5, 0x21, 0x21,
  0xff, 0xd9, 0x1e, 0x06, 0x24, 0x0d, 0x00, 0x26, 0x58, 0x0d, 0xf5, 0x13,
  0xd3, 0xbc, 0xfe, 0x0f, 0xe0, 0xbb, 0xd0, 0x81, 0xb8, 0xdc, 0x86, 0x0b,
  0xf9, 0xbe, 0x07, 0xa9, 0xf4, 0x19, 0xe4, 0xd5, 0x3f, 0xec, 0xe2, 0xae,
  0x26, 0x09, 0xd9, 0xe9, 0x5f, 0x2c, 0x30, 0xd3, 0x08, 0x39, 0xf8, 0x3c,
  0x06, 0x03, 0x19, 0xf0, 0x19, 0x09, 0xf0, 0x1d, 0x53, 0x24, 0x2a, 0xfe,
  0xbf, 0x3d, 0x19, 0x3d, 0xe4, 0x42, 0x15, 0xf0, 0xdc, 0x1c, 0xe9, 0xe7,
  0x09, 0xc5, 0x3d, 0x14, 0x14, 0xd4, 0xda, 0x0a, 0x18, 0x4b, 0x20, 0x20,
  0xf9, 0x2f, 0xd7, 0x17, 0x28, 0x22, 0x1d, 0x1c, 0xef, 0x1e, 0xf7, 0x2d,
  0x2b, 0xb1, 0xba, 0xb3, 0xeb, 0xf4, 0x81, 0x02, 0xd5, 0xf9, 0x45, 0xf3,
  0x08, 0xbf, 0x22, 0xea, 0xea, 0xdc, 0xff, 0xd0, 0x3b, 0xf3, 0xe3, 0xc2,
  0x24, 0xe7, 0x20, 0x03, 0x01, 0xbc, 0xe7, 0xec, 0x0f, 0xed, 0x12, 0xf7,
  0x12, 0x23, 0xde, 0x4d, 0x2e, 0x0f, 0x05, 0xfc, 0xd8, 0x4e, 0x22, 0xfb,
  0x13, 0xed, 0x28, 0xf8, 0x20, 0x1f, 0x07, 0x0b, 0x13, 0x2c, 0x21, 0xf0,
  0xdf, 0x21, 0x39, 0x1d, 0x24, 0xcc, 0x2c, 0xd5, 0xea, 0x00, 0x24, 0xb4,
  0xfb, 0xdb, 0xd8, 0xda, 0x2b, 0xf5, 0x0d, 0x21, 0xf4, 0xec, 0x43, 0x03,
  0x29, 0x30, 0xfc, 0xf8, 0x39, 0xff, 0xe5, 0x11, 0x22, 0xed, 0xee, 0x35,
  0xc1, 0xcc, 0x04, 0x09, 0x15, 0xec, 0xf7, 0x37, 0x35, 0x37, 0xd5, 0x1d,
  0xf4, 0x3e, 0xef, 0x29, 0x15, 0x20, 0xee, 0x12, 0xda, 0xc1, 0xe1, 0x01,
  0xfe, 0xd7, 0x41, 0x17, 0x64, 0x3f, 0x1b, 0xc9, 0xe7, 0x18, 0x0e, 0x10,
  0xe6, 0xdf, 0x14, 0xe5, 0x22, 0xf0, 0xef, 0x12, 0x29, 0x32, 0xf4, 0xe7,
  0xf8, 0x18, 0x15, 0x09, 0xeb, 0xef, 0x07, 0xf5, 0xf7, 0x0b, 0x0f, 0x18,
  0x0d, 0xfd, 0x0b, 0xe1, 0xaa, 0x21, 0xe4, 0x4e, 0xbc, 0xd3, 0x38, 0xf7,
  0xd6, 0xba, 0xab, 0xde, 0xb1, 0xf1, 0x96, 0xce, 0xb9, 0x2c, 0x2e, 0x51,
  0xb7, 0xdf, 0x2f, 0x2b, 0x20, 0x03, 0x95, 0x31, 0xc3, 0x07, 0x81, 0xcd,
  0xd2, 0x06, 0x1e, 0x20, 0xdd, 0xfa, 0x0b, 0xda, 0xc9, 0xf1, 0xb0, 0x09,
  0xd9, 0xf4, 0xeb, 0xc3, 0x0a, 0xd4, 0xfa, 0xf8, 0x08, 0x08, 0xd6, 0x0e,
  0xe8, 0x25, 0xed, 0xe5, 0x1a, 0x07, 0xd7, 0x12, 0xe7, 0xfe, 0x1e, 0x06,
  0x23, 0x23, 0xf8, 0x07, 0x4a, 0x30, 0xc9, 0x10, 0xef, 0x33, 0xfe, 0x1d,
  0x02, 0x08, 0xe4, 0xed, 0x28, 0x08, 0x05, 0x18, 0xec, 0xf1, 0xf8, 0x18,
  0x43, 0x27, 0x29, 0x06, 0x11, 0xf3, 0x2c, 0x0d, 0x06, 0x01, 0x0b, 0xdc,
  0xaf, 0x01, 0xf4, 0x18, 0x4e, 0xec, 0xf0, 0x3a, 0x1c, 0xce, 0x2e, 0xfd,
  0x48, 0x0c, 0x32, 0x50, 0x55, 0x62, 0xbc, 0x19, 0xd8, 0x25, 0xdc, 0xfa,
  0xe3, 0x0a, 0x09, 0x07, 0x16, 0x04, 0x15, 0xf2, 0xfd, 0xcf, 0x07, 0x0b,
  0xf1, 0x21, 0xf2, 0xfd, 0x18, 0x22, 0x45, 0xf2, 0xf2, 0x19, 0x25, 0x1a,
  0x29, 0xfa, 0xd2, 0x21, 0xe2, 0xfe, 0xed, 0xff, 0x31, 0xfc, 0x4b, 0x42,
  0x22, 0x30, 0x36, 0x5d, 0x76, 0x3a, 0xcd, 0x42, 0x81, 0x35, 0x00, 0x23,
  0xf0, 0xef, 0xf3, 0xd5, 0xf1, 0xe9, 0xf8, 0xde, 0xaa, 0xfe, 0x05, 0xe4,
  0xeb, 0xc9, 0xfa, 0x04, 0x19, 0xf6, 0x01, 0x18, 0x23, 0x1e, 0x33, 0x3a,
  0x4d, 0x4b, 0xbd, 0x0a, 0xa4, 0x0d, 0x2d, 0xff, 0xf5, 0x0d, 0x1f, 0x00,
  0x01, 0x24, 0xf5, 0x25, 0xd0, 0x0e, 0xa8, 0x13, 0x95, 0x1f, 0xf2, 0xfb,
  0xe4, 0xc7, 0xd7, 0xcc, 0xf4, 0xee, 0xfc, 0x0b, 0xba, 0xec, 0xc4, 0xf0,
  0xd1, 0xe6, 0x0c, 0xd9, 0x3e, 0xfd, 0xf9, 0xd9, 0x3d, 0x22, 0x00, 0x7f,
  0x35, 0x33, 0xdb, 0x1b, 0xfe, 0x57, 0x3e, 0xe5, 0xeb, 0xb8, 0xd9, 0xcf,
  0xef, 0xc1, 0xdd, 0xea, 0x15, 0xc7, 0xc5, 0xb6, 0xd4, 0xe0, 0xc8, 0xda,
  0x0f, 0xf3, 0x22, 0xfc, 0x01, 0x22, 0x15, 0x0e, 0x37, 0x2d, 0x2a, 0xf2,
  0xfd, 0x06, 0x1b, 0x2b, 0x52, 0xcc, 0x0d, 0xe8, 0xfe, 0xe8, 0xc9, 0x71,
  0x05, 0x20, 0x17, 0x04, 0xe4, 0x5c, 0x61, 0x13, 0xb9, 0xbb, 0xe4, 0xc1,
  0xaa, 0xbc, 0xca, 0xcf, 0xff, 0xb6, 0xaa, 0xc4, 0xcf, 0xc8, 0x96, 0xe6,
  0x01, 0x1f, 0x28, 0x2d, 0x34, 0x1c, 0x00, 0x09, 0x4e, 0x3c, 0xda, 0x24,
  0x13, 0xdf, 0xfd, 0xff, 0x29, 0xea, 0xed, 0xd0, 0xe8, 0x03, 0xe4, 0x08,
  0x5b, 0xf5, 0x0a, 0x04, 0x10, 0x07, 0x33, 0x1a, 0xd9, 0x02, 0xf0, 0xa5,
  0xf5, 0xdd, 0xe1, 0x40, 0x3e, 0xc8, 0xed, 0xd8, 0xd3, 0x12, 0xe6, 0xe4,
  0x18, 0x09, 0x44, 0x4d, 0x22, 0x2a, 0x50, 0x43, 0x2f, 0x42, 0xea, 0x2c,
  0xa0, 0x03, 0x06, 0x41, 0x2a, 0xf8, 0x01, 0xf0, 0xfd, 0x27, 0xcd, 0x2d,
  0x0c, 0x19, 0x31, 0xff, 0xf0, 0x24, 0x34, 0x1b, 0x2b, 0xf4, 0xf6, 0xf9,
  0x2d, 0xf2, 0xe7, 0x0f, 0xc5, 0x13, 0x04, 0xd8, 0xed, 0xee, 0x24, 0x22,
  0x28, 0xdc, 0xfe, 0x02, 0x0f, 0x14, 0xb7, 0x09, 0xce, 0x21, 0x2b, 0xec,
  0x32, 0x36, 0x0e, 0x06, 0x43, 0xe6, 0x10, 0xe9, 0x3a, 0xf0, 0xc8, 0x1b,
  0xf4, 0x49, 0x55, 0x25, 0x54, 0x09, 0x50, 0x2b, 0x7a, 0xe8, 0xb5, 0x9c,
  0x45, 0x14, 0xa9, 0xa9, 0xf8, 0x18, 0x7f, 0xe7, 0x5b, 0xf2, 0x2c, 0x0c,
  0x39, 0x05, 0xfa, 0xba, 0xe4, 0xf6, 0xd6, 0x14, 0x2f, 0xff, 0x5e, 0x0f,
  0x35, 0x58, 0x16, 0xfa, 0xfb, 0x21, 0x02, 0xfb, 0x14, 0xf7, 0x0c, 0xa3,
  0xe5, 0x0b, 0x12, 0x2b, 0x10, 0x04, 0x26, 0x06, 0x29, 0x0b, 0x2a, 0xf5,
  0xe4, 0xe4, 0x13, 0xa6, 0xd8, 0xe7, 0x53, 0x0c, 0x6c, 0xa7, 0x1b, 0x21,
  0x2c, 0xd9, 0xf9, 0xc9, 0xf5, 0xde, 0xd9, 0xfd, 0xa8, 0xfc, 0x24, 0x2c,
  0x60, 0x09, 0x05, 0xc2, 0x16, 0x1b, 0x1b, 0xf9, 0x1d, 0x10, 0x24, 0x20,
  0xfb, 0x0d, 0x20, 0x21, 0xfd, 0xf8, 0x32, 0x09, 0x0a, 0x0e, 0x13, 0x13,
  0x0e, 0xf4, 0x03, 0x0e, 0x1f, 0x06, 0x1c, 0xf1, 0x1c, 0x24, 0x20, 0x12,
  0xdb, 0x07, 0x0c, 0x23, 0x01, 0x04, 0xe2, 0x13, 0xfb, 0x0e, 0xf0, 0xea,
  0xef, 0x15, 0xf1, 0x24, 0x18, 0xd5, 0xe3, 0xca, 0xbd, 0xb6, 0xb4, 0xce,
  0x9e, 0xe7, 0x1b, 0xac, 0x2b, 0x18, 0xe8, 0xfa, 0xee, 0xad, 0xd0, 0x81,
  0xce, 0xea, 0xb9, 0xc8, 0x05, 0xd2, 0x15, 0xc1, 0x14, 0xef, 0xfb, 0xdb,
  0x19, 0xdc, 0x0a, 0xc8, 0xfb, 0x1b, 0x10, 0x19, 0x56, 0xdd, 0xfb, 0xdd,
  0xc1, 0xee, 0x09, 0x14, 0xf5, 0xe0, 0x11, 0x17, 0x25, 0x0d, 0xde, 0xd1,
  0xeb, 0x25, 0xf5, 0x27, 0x2c, 0xdc, 0xc5, 0xfb, 0x0f, 0xff, 0x31, 0x2d,
  0x0b, 0xf7, 0x09, 0x04, 0xcf, 0x50, 0xe3, 0x37, 0x14, 0xe2, 0xf6, 0x15,
  0xf0, 0xdd, 0x2f, 0xf3, 0xff, 0xff, 0xf1, 0x2a, 0x0a, 0xed, 0xf6, 0x16,
  0xff, 0xf6, 0xdb, 0xf9, 0xf6, 0xed, 0x31, 0x25, 0x05, 0xe3, 0x27, 0xfb,
  0xd9, 0x1f, 0xe4, 0x02, 0xf5, 0x23, 0xec, 0x0d, 0xf1, 0xff, 0xee, 0x13,
  0xe7, 0xf0, 0xf1, 0xda, 0x38, 0xec, 0x0e, 0x08, 0x17, 0x1d, 0xeb, 0xfd,
  0x41, 0x01, 0x81, 0x9f, 0xf1, 0xe8, 0xad, 0xda, 0xe0, 0xc8, 0x63, 0xce,
  0x6c, 0x34, 0x58, 0xf8, 0x10, 0x26, 0x1b, 0x1a, 0x2d, 0x0e, 0x37, 0x3c,
  0xda, 0x30, 0xe9, 0x38, 0xd0, 0xef, 0x05, 0x3a, 0xe4, 0x04, 0x08, 0x2a,
  0xe3, 0xe3, 0xfe, 0xfd, 0x1f, 0xff, 0xd6, 0xfe, 0xe2, 0xe0, 0xdd, 0xf4,
  0xc3, 0xb9, 0xe9, 0x43, 0xac, 0x9d, 0xdc, 0xd8, 0xaf, 0xc4, 0xf2, 0xc6,
  0x5b, 0xdf, 0xc4, 0xf5, 0xfe, 0x1c, 0x24, 0x1f, 0xf0, 0xea, 0x06, 0x42,
  0x29, 0xfc, 0x02, 0x0c, 0xdf, 0xfb, 0x06, 0xff, 0xea, 0x46, 0x0e, 0x2b,
  0xf4, 0x1e, 0x43, 0x2f, 0x0b, 0x17, 0xd5, 0x34, 0xd5, 0x17, 0x0f, 0x0a,
  0xb9, 0x43, 0x1d, 0x2e, 0xe2, 0x03, 0x37, 0xfd, 0x1a, 0x09, 0xca, 0x18,
  0xa2, 0xd3, 0xd6, 0xdc, 0xea, 0xe4, 0x10, 0x13, 0xf7, 0x1e, 0x0b, 0xe5,
  0x1b, 0xf7, 0xe6, 0xf7, 0x16, 0xf9, 0xd3, 0x04, 0xef, 0x19, 0x31, 0x2e,
  0x08, 0x1b, 0x23, 0x27, 0x13, 0xfd, 0x0c, 0x26, 0xe4, 0x0d, 0x0f, 0x07,
  0xf1, 0x07, 0x14, 0x06, 0xfb, 0x0e, 0x1c, 0x10, 0x0e, 0x0b, 0xf8, 0xfb,
  0xe9, 0xfb, 0xef, 0x0f, 0x0b, 0xf8, 0x2c, 0xcc, 0xe7, 0xe4, 0x11, 0xdf,
  0x07, 0xfa, 0xc1, 0xf1, 0xaa, 0xed, 0xcf, 0xf2, 0x2b, 0xf1, 0x05, 0x0c,
  0x2f, 0x22, 0xff, 0x2d, 0x7f, 0x31, 0xf4, 0x20, 0xdc, 0x1d, 0x08, 0x1d,
  0x07, 0x0d, 0xf3, 0xeb, 0x1a, 0xf4, 0xf9, 0x34, 0xfc, 0xe1, 0x26, 0x1c,
  0xe7, 0x04, 0x1e, 0xd7, 0xfd, 0xfe, 0x4b, 0x00, 0x23, 0xfe, 0x18, 0xf3,
  0x00, 0x2b, 0x99, 0x14, 0xa6, 0xc7, 0xe1, 0x04, 0x05, 0x0f, 0x0f, 0x08,
  0x2c, 0x0f, 0x0a, 0x11, 0x4e, 0x2d, 0xee, 0x10, 0x05, 0x06, 0xf1, 0x11,
  0xe3, 0x04, 0x03, 0xeb, 0xf6, 0xcf, 0xd0, 0xec, 0x82, 0xf9, 0xf5, 0x03,
  0x1b, 0x05, 0xe9, 0xea, 0x37, 0xe1, 0x42, 0xcc, 0xd1, 0x0e, 0x3d, 0x06,
  0x85, 0x0d, 0xc5, 0x31, 0xa0, 0x05, 0x28, 0x10, 0x09, 0x0e, 0x16, 0x1f,
  0xfa, 0x2e, 0xea, 0x57, 0x6f, 0x21, 0xe5, 0xde, 0xc5, 0x43, 0x12, 0x05,
  0xd9, 0xdb, 0x15, 0x09, 0x2e, 0x10, 0xd5, 0x39, 0x3a, 0x05, 0x06, 0xf7,
  0xf5, 0xf6, 0xdd, 0x35, 0xec, 0xc1, 0x14, 0xe7, 0xf7, 0xe3, 0xd6, 0x15,
  0x1c, 0x0d, 0xd2, 0xd9, 0xed, 0xf2, 0x24, 0xf0, 0x2f, 0xf5, 0x17, 0xe1,
  0x34, 0x00, 0x13, 0x36, 0x4f, 0x36, 0x29, 0xee, 0x00, 0x1e, 0x14, 0x03,
  0x0b, 0xc2, 0xee, 0xe0, 0x4e, 0x14, 0xf7, 0xf5, 0x1b, 0x13, 0x02, 0xd1,
  0x0e, 0xd8, 0x1c, 0x25, 0x1e, 0xd2, 0xd4, 0xe8, 0xcf, 0x0c, 0xf2, 0x81,
  0x21, 0xad, 0x22, 0xb4, 0x06, 0xc4, 0xe3, 0xee, 0x27, 0xee, 0x3c, 0x0d,
  0x09, 0x0b, 0x2c, 0x33, 0x36, 0x3b, 0x1f, 0x38, 0x47, 0x10, 0x1b, 0x49,
  0xfc, 0x03, 0xfd, 0xe3, 0xf5, 0x2a, 0xf0, 0x43, 0x1d, 0x1c, 0x0b, 0x04,
  0xd2, 0x10, 0x09, 0x2e, 0x82, 0xea, 0xff, 0xff, 0x04, 0x00, 0x00, 0x00,
  0x80, 0x00, 0x00, 0x00, 0xec, 0xfd, 0xff, 0xff, 0x3b, 0xfe, 0xff, 0xff,
  0x19, 0xfd, 0xff, 0xff, 0x04, 0x02, 0x00, 0x00, 0xaf, 0xfe, 0xff, 0xff,
  0x31, 0x01, 0x00, 0x00, 0x6b, 0x02, 0x00, 0x00, 0xac, 0x02, 0x00, 0x00,
  0x84, 0xff, 0xff, 0xff, 0x3a, 0xff, 0xff, 0xff, 0x71, 0x02, 0x00, 0x00,
  0x6e, 0x03, 0x00, 0x00, 0x7d, 0x00, 0x00, 0x00, 0x36, 0x00, 0x00, 0x00,
  0x28, 0xfc, 0xff, 0xff, 0x42, 0xfd, 0xff, 0xff, 0x57, 0xfc, 0xff, 0xff,
  0x67, 0x00, 0x00, 0x00, 0x45, 0xfc, 0xff, 0xff, 0x49, 0x01, 0x00, 0x00,
  0x1d, 0xff, 0xff, 0xff, 0x03, 0x02, 0x00, 0x00, 0x49, 0xfd, 0xff, 0xff,
  0x90, 0xfe, 0xff, 0xff, 0xa1, 0x03, 0x00, 0x00, 0xcb, 0xfe, 0xff, 0xff,
  0x90, 0x01, 0x00, 0x00, 0x3a, 0x01, 0x00, 0x00, 0xe9, 0x00, 0x00, 0x00,
  0xb8, 0x01, 0x00, 0x00, 0x68, 0xfe, 0xff, 0xff, 0xb0, 0xff, 0xff, 0xff,
  0x0e, 0xeb, 0xff, 0xff, 0x04, 0x00, 0x00, 0x00, 0x00, 0x14, 0x00, 0x00,
  0x09, 0xf4, 0x0a, 0x13, 0xfd, 0x0f, 0xff, 0x06, 0x06, 0x08, 0xf5, 0xfc,
  0xef, 0x06, 0xf7, 0xf0, 0x00, 0x17, 0x07, 0xf4, 0xf5, 0xff, 0xeb, 0x08,
  0x01, 0x25, 0xee, 0xf2, 0xff, 0x09, 0xf7, 0xf4, 0xff, 0x08, 0xfd, 0xf9,
  0xf2, 0xec, 0xfa, 0x0c, 0xfc, 0x08, 0xf2, 0xf5, 0xfc, 0xf9, 0xf2, 0xed,
  0x04, 0x02, 0x12, 0xe5, 0xfe, 0xf8, 0xe2, 0xef, 0x01, 0xf9, 0xea, 0x08,
  0x0a, 0xe3, 0xef, 0xfe, 0x04, 0xfa, 0xf8, 0x0a, 0xfd, 0xf6, 0x01, 0x02,
  0xf4, 0xf8, 0xf5, 0x03, 0xfb, 0xff, 0x04, 0xec, 0xfa, 0xf9, 0x05, 0xed,
  0xff, 0xfc, 0xf2, 0xf1, 0xee, 0xf5, 0xf7, 0x05, 0xf7, 0x06, 0xf4, 0xf5,
  0xfe, 0x08, 0x00, 0xf5, 0xfb, 0x08, 0x09, 0x0c, 0x0b, 0xf9, 0xff, 0x11,
  0x05, 0x09, 0xf1, 0x08, 0x06, 0xfe, 0xf4, 0xf7, 0xfb, 0x0c, 0x10, 0x08,
  0xf8, 0x00, 0x02, 0xf9, 0x03, 0x09, 0xf1, 0x18, 0x10, 0x10, 0x14, 0x03,
  0xfa, 0x1d, 0x05, 0xf6, 0xf4, 0x06, 0x21, 0x01, 0x0e, 0x0d, 0xff, 0x0c,
  0x09, 0x03, 0xf7, 0xeb, 0x0a, 0x09, 0x1c, 0x0a, 0x01, 0xff, 0x06, 0x0c,
  0xf8, 0xfc, 0x08, 0x05, 0xe7, 0xfa, 0xe2, 0xea, 0x03, 0x04, 0xda, 0xfe,
  0xf9, 0xf0, 0xec, 0x03, 0x05, 0xf9, 0xf2, 0xe0, 0xf9, 0x0b, 0xf1, 0xf0,
  0xf4, 0x00, 0xd7, 0xee, 0xf8, 0xea, 0xf7, 0xf8, 0x0a, 0xed, 0xf7, 0xdb,
  0x03, 0xf5, 0xee, 0x07, 0xee, 0x04, 0x13, 0x13, 0xfe, 0xfd, 0x09, 0x04,
  0x21, 0xff, 0x04, 0x04, 0xf6, 0xf6, 0x04, 0xf6, 0x14, 0x05, 0x1a, 0x0b,
  0x2c, 0x03, 0x10, 0xed, 0xe1, 0xf7, 0x02, 0x16, 0xf4, 0xef, 0xfc, 0xf7,
  0xfd, 0xf8, 0x02, 0x0a, 0xfb, 0x05, 0x0d, 0x08, 0x0e, 0xf9, 0x02, 0xf9,
  0x03, 0x0c, 0xf8, 0xe3, 0x0a, 0x0f, 0xee, 0x10, 0xea, 0xef, 0x08, 0x0b,
  0x08, 0xef, 0xf7, 0x04, 0x05, 0xfa, 0xf9, 0x07, 0xf7, 0x0f, 0x01, 0xf9,
  0x05, 0x0a, 0x1b, 0x19, 0x05, 0x09, 0xf5, 0x13, 0xfb, 0x07, 0xf5, 0xff,
  0xf2, 0x04, 0x0c, 0x08, 0xfc, 0xf1, 0x02, 0x19, 0x23, 0x0f, 0x03, 0x03,
  0xf0, 0xe8, 0xfc, 0xe5, 0x07, 0xec, 0x12, 0xee, 0xfc, 0x01, 0x04, 0x19,
  0x05, 0x04, 0x0b, 0xef, 0x00, 0x01, 0x05, 0xda, 0xf3, 0x14, 0x18, 0xf7,
  0xdd, 0x00, 0x09, 0x13, 0x19, 0xf1, 0xef, 0xfd, 0x09, 0xff, 0x0c, 0xf8,
  0xfe, 0xfe, 0xfc, 0x02, 0xe8, 0x11, 0xf0, 0x0c, 0xda, 0xfa, 0xeb, 0x07,
  0xee, 0x10, 0xf9, 0xed, 0xf5, 0x19, 0x02, 0x09, 0xff, 0x06, 0x08, 0xfa,
  0x0b, 0xef, 0x16, 0x01, 0x0c, 0xf9, 0x0e, 0xf8, 0xfe, 0x05, 0x06, 0x0b,
  0xf9, 0xfc, 0x09, 0x09, 0x08, 0x0f, 0x06, 0x15, 0x00, 0x16, 0xf9, 0xe3,
  0x0c, 0x12, 0x03, 0xff, 0xe5, 0xf6, 0x17, 0x09, 0xf4, 0xfb, 0xee, 0x0b,
  0x06, 0xf9, 0x00, 0x05, 0x10, 0x0e, 0x01, 0x17, 0x0d, 0xfc, 0xfe, 0x00,
  0xfe, 0x0a, 0xfb, 0x00, 0xfd, 0xfc, 0x00, 0x00, 0xfb, 0x02, 0x0b, 0xff,
  0xff, 0xf9, 0x05, 0x13, 0x0d, 0x07, 0xfe, 0x01, 0xfc, 0x0d, 0x11, 0x03,
  0xf6, 0x0b, 0x0d, 0x09, 0x07, 0x01, 0xfb, 0x0a, 0x05, 0x0c, 0x0e, 0x0a,
  0x0c, 0x08, 0x01, 0x0d, 0xff, 0x0b, 0x03, 0xfd, 0xf0, 0xfc, 0xfe, 0x11,
  0x0a, 0xff, 0x04, 0x04, 0x04, 0x09, 0xff, 0x0d, 0x0e, 0x0c, 0x07, 0xfa,
  0xf8, 0x13, 0xfd, 0xfe, 0x10, 0xfd, 0x06, 0x04, 0x00, 0x00, 0xf0, 0x01,
  0xff, 0x02, 0xfa, 0x02, 0x03, 0x08, 0x01, 0x0b, 0x08, 0x05, 0x05, 0x08,
  0x14, 0xfd, 0xf6, 0x05, 0x10, 0xff, 0xfd, 0x06, 0xf4, 0x10, 0xfe, 0x13,
  0x15, 0x05, 0xfa, 0xfb, 0xfc, 0x13, 0xea, 0x00, 0x05, 0x0d, 0x07, 0x04,
  0xf9, 0x03, 0xfb, 0x09, 0x00, 0xff, 0xff, 0xfd, 0xf6, 0x04, 0xf1, 0xe7,
  0xe8, 0x30, 0xf7, 0x1c, 0xdf, 0xfb, 0x22, 0xff, 0xf9, 0xea, 0x02, 0xf5,
  0xe4, 0x1c, 0x07, 0x0c, 0xf5, 0x0c, 0xe6, 0xf6, 0xe0, 0x02, 0xf7, 0xf8,
  0xf4, 0xc8, 0x00, 0xe8, 0xeb, 0x03, 0xf4, 0xfc, 0xf1, 0x12, 0x08, 0xed,
  0x17, 0xed, 0x24, 0x09, 0x17, 0x05, 0x0a, 0xeb, 0xf3, 0x21, 0xe3, 0x27,
  0x09, 0x02, 0x11, 0xfc, 0x0a, 0x07, 0x1d, 0x03, 0xcb, 0x0e, 0x1a, 0xfb,
  0xf5, 0xed, 0x00, 0x00, 0xe4, 0xfc, 0xee, 0xf5, 0x09, 0x03, 0x02, 0x02,
  0xfc, 0xf0, 0xf2, 0x0c, 0xf9, 0x0a, 0x0e, 0xfd, 0xfd, 0x08, 0x07, 0x00,
  0x12, 0x0a, 0x1b, 0xfb, 0xcb, 0x01, 0x09, 0xf4, 0x03, 0x02, 0xfb, 0x05,
  0x04, 0xf6, 0x06, 0x00, 0x05, 0xf8, 0xff, 0xff, 0xe8, 0xfe, 0xf6, 0x11,
  0xfc, 0x00, 0xe9, 0x0a, 0x00, 0xfb, 0xf6, 0x0b, 0x13, 0xef, 0xed, 0xf6,
  0x01, 0xf6, 0x06, 0xfa, 0xf1, 0xe7, 0xe5, 0xe0, 0xf0, 0x1c, 0xeb, 0x1b,
  0xe5, 0xea, 0xf7, 0x03, 0xf8, 0xe1, 0xfb, 0xef, 0xf2, 0xf6, 0xfc, 0xea,
  0xff, 0xf6, 0xf1, 0xe1, 0xd8, 0xf1, 0xfa, 0xfe, 0x09, 0xab, 0xe8, 0xea,
  0xf7, 0xf0, 0xef, 0x04, 0xd3, 0x0e, 0x17, 0x18, 0xf0, 0x05, 0x03, 0x0d,
  0x23, 0x08, 0xfc, 0xed, 0xe0, 0x02, 0xeb, 0xf4, 0xe9, 0x1d, 0x01, 0x0d,
  0xf3, 0x17, 0x28, 0xe2, 0xd8, 0x05, 0x07, 0x0b, 0x07, 0xe3, 0xee, 0xf9,
  0x01, 0xf2, 0xe7, 0xfb, 0xf4, 0x00, 0x15, 0x0c, 0x05, 0xf5, 0xf8, 0xfe,
  0x02, 0xff, 0xe1, 0xe7, 0xfc, 0x0c, 0xfe, 0xf0, 0xe1, 0xf9, 0x0c, 0x01,
  0xf0, 0xf0, 0xdf, 0xff, 0x03, 0xf2, 0xf8, 0x0c, 0x06, 0xf4, 0x07, 0xfa,
  0x00, 0xf2, 0xf1, 0x05, 0xff, 0x01, 0xf5, 0xfd, 0xf0, 0xfe, 0xef, 0x02,
  0x07, 0x01, 0xf4, 0xfd, 0x02, 0xf9, 0xfa, 0xf3, 0xfb, 0xfa, 0x0a, 0x00,
  0xf2, 0xf7, 0x0c, 0xf3, 0x09, 0xf4, 0x07, 0xec, 0x06, 0x00, 0xf3, 0x0d,
  0xf8, 0x03, 0x05, 0x05, 0x05, 0xf9, 0xfd, 0xf8, 0xf8, 0xfe, 0xf3, 0xf7,
  0xfa, 0xfc, 0xf5, 0x10, 0xe8, 0xe1, 0x01, 0xf0, 0xf1, 0xf9, 0xf3, 0x03,
  0xdd, 0x14, 0x0c, 0x10, 0xe8, 0x15, 0xe8, 0x04, 0x2d, 0x0b, 0x06, 0xf6,
  0xc4, 0xfc, 0xf9, 0xe0, 0xf5, 0x17, 0x17, 0x09, 0x09, 0x09, 0x38, 0xff,
  0xf3, 0x03, 0x09, 0x15, 0xde, 0xe8, 0x07, 0xed, 0xd4, 0xe8, 0x03, 0xf6,
  0xf0, 0xec, 0x08, 0xfc, 0xfe, 0xf9, 0x0a, 0xe4, 0xeb, 0x01, 0xf0, 0xdd,
  0xea, 0x04, 0x03, 0xe2, 0xd9, 0xfd, 0x0b, 0x05, 0xed, 0x09, 0xea, 0xfc,
  0xfb, 0xfc, 0xfb, 0xfd, 0x04, 0x01, 0x07, 0xfd, 0x00, 0xfc, 0xfb, 0xfd,
  0xf7, 0xf8, 0xf4, 0x0b, 0x05, 0xf7, 0xf1, 0x0d, 0xfb, 0xf8, 0xfe, 0xf7,
  0x0a, 0xf5, 0xfe, 0xf1, 0xf6, 0xf1, 0x07, 0x01, 0x05, 0xfa, 0xf6, 0xf9,
  0xff, 0x01, 0xfc, 0x01, 0x10, 0x03, 0x02, 0x01, 0xf7, 0x10, 0x09, 0xf1,
  0x05, 0x03, 0x05, 0xfd, 0xf8, 0x00, 0xf8, 0x07, 0x14, 0x13, 0xf8, 0x03,
  0xf9, 0x0d, 0xfe, 0xec, 0x10, 0xee, 0xfa, 0x05, 0x10, 0x05, 0x03, 0x00,
  0xfa, 0x00, 0x0f, 0x03, 0xfb, 0x03, 0xfd, 0x07, 0xf8, 0x00, 0x0f, 0x13,
  0x0d, 0x06, 0x12, 0x08, 0x11, 0xf4, 0x02, 0x07, 0x10, 0x14, 0xf9, 0xf9,
  0xf7, 0xea, 0x03, 0xfc, 0x04, 0xfc, 0xff, 0xf3, 0x00, 0xf0, 0x04, 0x01,
  0x03, 0x0e, 0xfb, 0x00, 0xfc, 0xf5, 0xfe, 0x01, 0x05, 0x08, 0xf2, 0xf2,
  0x06, 0xf6, 0x0e, 0xfb, 0x06, 0xfb, 0xf5, 0xf0, 0xfb, 0x04, 0x05, 0x07,
  0x09, 0xfa, 0xfd, 0xf9, 0xfa, 0x0b, 0xf5, 0xf9, 0xf3, 0xf7, 0xfe, 0x09,
  0x0c, 0x01, 0xf4, 0x07, 0x09, 0xf7, 0xf6, 0x04, 0x10, 0xfb, 0xfd, 0xf9,
  0xfc, 0xf9, 0x0c, 0x01, 0x0b, 0xf8, 0x0d, 0xf5, 0xf0, 0xd5, 0xfc, 0xe0,
  0x12, 0xf8, 0xd0, 0xfa, 0xf6, 0x03, 0x0a, 0xf5, 0xf0, 0xf2, 0xed, 0xf8,
  0x01, 0xf1, 0xf4, 0xeb, 0xfa, 0xfa, 0xec, 0x0a, 0xea, 0x11, 0x0d, 0x04,
  0x0d, 0xfe, 0x13, 0x06, 0xf9, 0xf8, 0xff, 0xe3, 0xec, 0x08, 0x06, 0x13,
  0x03, 0xff, 0x0a, 0x1d, 0xf1, 0xf8, 0xf1, 0x10, 0xf5, 0xf8, 0x05, 0xf5,
  0x02, 0xf3, 0xfb, 0x01, 0x03, 0x12, 0xec, 0xfb, 0xfd, 0xef, 0xfb, 0xf6,
  0x09, 0x04, 0x01, 0xd5, 0x09, 0xfa, 0x0a, 0xff, 0x0a, 0x02, 0x0a, 0xe9,
  0xf8, 0xfe, 0xe2, 0x1d, 0x0a, 0x0b, 0x13, 0x0c, 0x0b, 0xfa, 0x01, 0xf9,
  0xf4, 0xfc, 0xe6, 0x1a, 0xf7, 0xf8, 0xfc, 0xf1, 0x0b, 0xf5, 0xfd, 0xef,
  0xf6, 0xfa, 0x01, 0xfb, 0xf7, 0x01, 0xfa, 0xf1, 0xf0, 0xf9, 0x10, 0xfe,
  0xfa, 0xf9, 0xeb, 0xf5, 0x03, 0xfb, 0x00, 0xf3, 0x05, 0xfb, 0xfe, 0xf5,
  0x08, 0x04, 0x08, 0x09, 0x02, 0xd6, 0xfa, 0xe5, 0x1c, 0x14, 0xcb, 0x07,
  0xf1, 0x04, 0xef, 0x15, 0x02, 0x03, 0xeb, 0x05, 0xf4, 0xf1, 0x0e, 0x09,
  0x15, 0xf1, 0x01, 0x0a, 0xf6, 0x12, 0xf3, 0x0d, 0x04, 0x00, 0xf5, 0x07,
  0x06, 0xf8, 0x02, 0x0c, 0x09, 0xfd, 0xed, 0x0b, 0x02, 0xfb, 0x0f, 0x09,
  0x0d, 0x05, 0x14, 0x01, 0x0d, 0xf3, 0x18, 0x10, 0x01, 0xf4, 0xf3, 0x0e,
  0x22, 0xf0, 0xff, 0xf9, 0x0e, 0x05, 0xff, 0x0b, 0xf8, 0x02, 0xef, 0xeb,
  0xf5, 0x10, 0x10, 0x10, 0xe2, 0x0d, 0xfc, 0x15, 0xf9, 0x13, 0xf2, 0xfd,
  0xf4, 0x07, 0xeb, 0x02, 0xfa, 0xfc, 0x1e, 0x05, 0xf8, 0x06, 0x0a, 0x0e,
  0x02, 0xd6, 0x00, 0x07, 0xfb, 0xf4, 0xfd, 0xf7, 0xf0, 0xfb, 0xf6, 0xf1,
  0xe4, 0xf2, 0xf8, 0x04, 0xe6, 0xf5, 0xeb, 0x15, 0x01, 0xef, 0xff, 0xeb,
  0x09, 0xf7, 0xfa, 0x06, 0xf1, 0xf5, 0xf8, 0xea, 0xf7, 0xfe, 0xf5, 0x1a,
  0x0c, 0xec, 0x05, 0x0b, 0x01, 0xdd, 0x0d, 0xfe, 0x07, 0xed, 0x07, 0x0b,
  0x16, 0xf5, 0x09, 0x0d, 0x05, 0xf1, 0x1b, 0xe8, 0xe7, 0xf7, 0xfd, 0xfc,
  0x02, 0x26, 0xf9, 0xf9, 0xf7, 0x04, 0xfd, 0x01, 0xf0, 0x0f, 0xff, 0x1e,
  0x04, 0xff, 0x0a, 0xf5, 0x22, 0xf9, 0xf7, 0xfa, 0x14, 0xfd, 0xfa, 0x05,
  0xe0, 0x1d, 0xf9, 0xf7, 0xf1, 0x12, 0x04, 0x01, 0x1c, 0x13, 0x04, 0x0f,
  0x32, 0xfd, 0xfd, 0x0c, 0x33, 0x04, 0x03, 0xfd, 0x05, 0x05, 0x16, 0xe6,
  0xed, 0x03, 0x03, 0xfb, 0x20, 0xfc, 0x05, 0x0d, 0x14, 0xf6, 0x0e, 0x04,
  0x11, 0xfc, 0xea, 0xef, 0x13, 0x07, 0x08, 0xe2, 0xea, 0xef, 0xea, 0xf7,
  0x09, 0xf2, 0x0a, 0xfb, 0xd9, 0xf4, 0xeb, 0xf5, 0x01, 0xf4, 0xfc, 0xef,
  0xec, 0xf3, 0xe1, 0xe4, 0xf0, 0xf2, 0xf6, 0xf3, 0x03, 0xe3, 0xe7, 0xfc,
  0xe6, 0xe0, 0xf6, 0xf0, 0xfc, 0xf2, 0xd7, 0xf2, 0xf1, 0xf8, 0xf2, 0xf8,
  0xf1, 0x09, 0xe1, 0xfc, 0xe9, 0xf7, 0x06, 0xf7, 0xfc, 0xf7, 0xfb, 0xf8,
  0xef, 0x0b, 0xfc, 0x01, 0xf7, 0xf7, 0xf7, 0x01, 0xe5, 0x11, 0xf1, 0xf5,
  0xf7, 0xee, 0xff, 0xec, 0x01, 0xfe, 0xfa, 0xee, 0xea, 0xe6, 0xe8, 0xf8,
  0xdc, 0xf2, 0xee, 0xed, 0xf8, 0xe9, 0x01, 0xf1, 0xf4, 0x0e, 0xec, 0xe8,
  0xff, 0x03, 0x0c, 0x06, 0xe7, 0xe4, 0xe4, 0x02, 0xf6, 0xf7, 0x01, 0xee,
  0x05, 0xf8, 0xf9, 0xf2, 0xfc, 0x05, 0xf3, 0x02, 0x0c, 0xf5, 0xf4, 0xf5,
  0xfe, 0x00, 0x00, 0xf8, 0x06, 0x02, 0x0f, 0x03, 0xfd, 0xf4, 0xfa, 0xed,
  0xf5, 0xef, 0xf2, 0xeb, 0xf1, 0x05, 0xfc, 0xfb, 0x03, 0xf9, 0x03, 0xfd,
  0xf9, 0xfb, 0xfa, 0xf6, 0xf3, 0x0a, 0xfb, 0xf2, 0x05, 0xfd, 0xf2, 0xfc,
  0xf6, 0xfd, 0xf9, 0x01, 0xf7, 0x13, 0x03, 0x00, 0x01, 0xf9, 0x06, 0xfe,
  0xff, 0xf7, 0x06, 0x07, 0x07, 0xe9, 0x09, 0xfa, 0x14, 0x0b, 0xe1, 0xef,
  0xfb, 0xf9, 0x02, 0x01, 0x16, 0xf3, 0x12, 0x05, 0x1d, 0xf3, 0x04, 0xfe,
  0x19, 0xfb, 0x05, 0xfd, 0x11, 0x47, 0xed, 0xfb, 0x0a, 0x0d, 0x03, 0xf5,
  0x08, 0xec, 0x04, 0x0f, 0xca, 0x0b, 0xe6, 0x05, 0xf6, 0xfc, 0xfd, 0x0d,
  0x08, 0xc4, 0x19, 0x1e, 0x05, 0xff, 0xfa, 0xf5, 0xde, 0xf3, 0xd1, 0x02,
  0x0c, 0x0a, 0xdf, 0x02, 0x05, 0x0d, 0xfb, 0x11, 0xf9, 0xff, 0x07, 0x13,
  0xfa, 0x09, 0xfa, 0xf5, 0x05, 0xf8, 0x12, 0xe7, 0x09, 0x04, 0x19, 0xef,
  0x04, 0xfe, 0xf0, 0x02, 0xf8, 0xec, 0xfd, 0x01, 0x00, 0xfd, 0x09, 0x03,
  0x03, 0x08, 0x13, 0x08, 0x02, 0xf0, 0xfe, 0xed, 0x16, 0x06, 0xf1, 0xf1,
  0x01, 0xf9, 0x13, 0xf8, 0x0a, 0xfe, 0xfa, 0xfe, 0xe9, 0xf3, 0xe7, 0xef,
  0x03, 0x08, 0x09, 0xfa, 0x07, 0x0d, 0x17, 0xec, 0x0c, 0x0b, 0x0e, 0x07,
  0xff, 0x0e, 0xfa, 0xf9, 0xec, 0xfa, 0x01, 0xf7, 0xff, 0xff, 0xfa, 0x08,
  0x1a, 0xf3, 0x09, 0x0d, 0x01, 0xf6, 0x07, 0x13, 0x05, 0x1a, 0xf9, 0xfb,
  0xf7, 0xf9, 0x0a, 0x05, 0x0c, 0x0c, 0x0e, 0xfe, 0x02, 0x10, 0x0c, 0xe4,
  0x07, 0x09, 0xfa, 0xef, 0xd7, 0x09, 0x0a, 0x08, 0x0d, 0xf1, 0x0b, 0x07,
  0x0c, 0xfc, 0xf6, 0xfc, 0xf9, 0x0e, 0x06, 0x05, 0x07, 0xf4, 0x05, 0xf8,
  0x0b, 0x0a, 0x0a, 0x09, 0x0e, 0x05, 0xfc, 0xd8, 0x06, 0xfc, 0x09, 0xf7,
  0x1d, 0x06, 0x12, 0xf5, 0xfd, 0x05, 0x04, 0xc8, 0x00, 0x0a, 0xf9, 0x11,
  0xf3, 0x0e, 0x0e, 0xfc, 0xde, 0x0f, 0x04, 0xf8, 0xfd, 0x11, 0x08, 0xff,
  0x0f, 0x09, 0xf9, 0xf8, 0x06, 0x0b, 0x0b, 0x03, 0x06, 0x10, 0x0b, 0xf9,
  0x18, 0x01, 0x1e, 0xd9, 0x06, 0x06, 0x05, 0x00, 0xf9, 0x1b, 0xfb, 0x00,
  0xf9, 0x19, 0x13, 0xfe, 0xe7, 0xf3, 0xf0, 0xf6, 0x05, 0x1f, 0xfa, 0x00,
  0x04, 0xfe, 0x00, 0x00, 0xf1, 0x08, 0x0f, 0xfe, 0xf3, 0xf6, 0x10, 0xf9,
  0xfe, 0xe5, 0xf2, 0x07, 0x06, 0x00, 0x01, 0xec, 0xf6, 0xdf, 0x00, 0xf8,
  0x01, 0xf8, 0xf5, 0xfc, 0xff, 0xf9, 0xe6, 0xef, 0xfd, 0xf4, 0xff, 0xe6,
  0xe3, 0xf5, 0x07, 0x0c, 0xf6, 0xf1, 0xfc, 0x0f, 0x0e, 0xcf, 0xf9, 0xfa,
  0x12, 0xf9, 0xfb, 0xf2, 0xef, 0xec, 0x01, 0xf4, 0xf2, 0x18, 0x07, 0xf2,
  0xf6, 0x00, 0xf9, 0x04, 0x10, 0xf3, 0xf8, 0xf5, 0xdd, 0x00, 0xf6, 0x06,
  0x00, 0x09, 0x07, 0x06, 0xfa, 0xd2, 0x06, 0x04, 0x03, 0x0a, 0x0c, 0xf5,
  0x06, 0x07, 0x01, 0x11, 0xf5, 0x20, 0x02, 0x04, 0x0a, 0x0c, 0xf5, 0xf6,
  0x0a, 0x06, 0x08, 0xef, 0x07, 0xf8, 0x07, 0xfe, 0x01, 0xff, 0x0f, 0x07,
  0xf0, 0xfc, 0x03, 0xfe, 0x1c, 0x10, 0xfb, 0x07, 0xf9, 0x17, 0x1d, 0x00,
  0xfe, 0x0d, 0x17, 0xeb, 0xea, 0xf5, 0xf1, 0xfa, 0x0b, 0xeb, 0x0f, 0xe9,
  0x0c, 0xea, 0xfd, 0xfd, 0x09, 0xf8, 0x03, 0xed, 0xfa, 0xef, 0x0d, 0xf0,
  0x09, 0x03, 0xf3, 0xf9, 0xff, 0xf3, 0x03, 0xf7, 0xf3, 0x03, 0xf8, 0xf3,
  0xf6, 0xf5, 0xec, 0xf0, 0x02, 0xed, 0xf8, 0xfc, 0x11, 0xf3, 0x00, 0x02,
  0xf5, 0xef, 0x09, 0xfd, 0xf7, 0xfa, 0xfe, 0xf5, 0xfe, 0xfc, 0xe4, 0xe7,
  0xf2, 0xfd, 0x0c, 0xf5, 0x02, 0x0c, 0x05, 0xf2, 0x01, 0xed, 0xf9, 0xf4,
  0x09, 0xea, 0x07, 0xef, 0xf8, 0xf2, 0x09, 0xf9, 0x13, 0xea, 0x02, 0x0c,
  0x0c, 0xfb, 0xfa, 0xfb, 0x0e, 0x0a, 0x05, 0xef, 0x0c, 0x03, 0x09, 0xf7,
  0xf7, 0x13, 0x17, 0xf8, 0xfb, 0xef, 0xec, 0xf0, 0x0a, 0xf7, 0xf3, 0xfa,
  0xfe, 0xf3, 0x04, 0xf3, 0xfc, 0x02, 0x1a, 0xf1, 0xf3, 0xed, 0x00, 0xfc,
  0xf4, 0xf8, 0xf6, 0x04, 0x02, 0x0a, 0xf7, 0x03, 0xf4, 0xfd, 0xf9, 0xf3,
  0xfa, 0x1b, 0xf7, 0x25, 0xd3, 0xe9, 0x15, 0x07, 0x02, 0xe3, 0xf2, 0x03,
  0xf8, 0x0a, 0x0d, 0x0e, 0xfd, 0x05, 0x02, 0x03, 0x09, 0xe5, 0xff, 0xf8,
  0x18, 0xce, 0xe9, 0xf6, 0xf8, 0x0c, 0xf5, 0x0e, 0xfc, 0x0d, 0x10, 0xe6,
  0x25, 0xfe, 0x1b, 0xc3, 0x05, 0xff, 0x0a, 0xe9, 0xfb, 0x0e, 0x03, 0x0c,
  0x14, 0x05, 0x05, 0x14, 0x12, 0x24, 0x21, 0xd1, 0xf7, 0x08, 0x18, 0x05,
  0xfc, 0x06, 0xf6, 0x09, 0x02, 0x0e, 0xfa, 0x09, 0x08, 0xfe, 0x0d, 0xf0,
  0xf1, 0xf3, 0x09, 0xd4, 0x0b, 0x03, 0x0f, 0xe6, 0xef, 0xfa, 0xf8, 0x01,
  0x04, 0x0f, 0x06, 0xf4, 0xf0, 0x0b, 0x14, 0x0b, 0xf8, 0xfd, 0xef, 0xf9,
  0x0c, 0xfd, 0xf5, 0xf4, 0xf7, 0xff, 0xf3, 0x08, 0xef, 0x00, 0xfd, 0x03,
  0xe8, 0xf0, 0xf1, 0x15, 0x03, 0x04, 0xf3, 0x03, 0x00, 0xf3, 0xea, 0xf8,
  0x01, 0xee, 0x0d, 0x00, 0x09, 0x0f, 0x08, 0xef, 0xf8, 0xe1, 0x08, 0xeb,
  0x05, 0x02, 0x03, 0xea, 0x06, 0x08, 0x04, 0xfc, 0x07, 0x09, 0x0d, 0xf8,
  0x0c, 0xfd, 0x09, 0xf6, 0x09, 0x23, 0x03, 0xf9, 0xfb, 0xfb, 0x0c, 0x05,
  0x03, 0x03, 0x17, 0xea, 0xf5, 0xf5, 0xfa, 0xf8, 0x03, 0x02, 0xfa, 0xdb,
  0xfa, 0x01, 0x03, 0x04, 0x11, 0x01, 0x13, 0xe7, 0xf9, 0x0a, 0xfa, 0xee,
  0x08, 0x06, 0x08, 0xf4, 0xf4, 0x09, 0x05, 0xf5, 0x09, 0x01, 0x11, 0xf9,
  0xfb, 0xf6, 0x0d, 0x05, 0x08, 0xf9, 0xf9, 0xf1, 0xef, 0x03, 0x05, 0x0c,
  0xff, 0x03, 0x13, 0xe6, 0x0b, 0xf0, 0x08, 0xf4, 0x0b, 0xf9, 0xed, 0x0a,
  0x00, 0xfe, 0xfd, 0xe2, 0x06, 0x06, 0xf9, 0xf8, 0x07, 0xf5, 0xfa, 0xf7,
  0xf9, 0x0e, 0x03, 0x01, 0x0a, 0x07, 0x07, 0xf9, 0xff, 0xf4, 0x07, 0x21,
  0xfc, 0xfb, 0xff, 0xff, 0xf0, 0x0c, 0xfa, 0xfa, 0xf7, 0x03, 0xfa, 0xfd,
  0xde, 0xf3, 0xf9, 0x06, 0xf0, 0xf5, 0x05, 0x08, 0xff, 0xfb, 0xf7, 0x09,
  0xf4, 0x00, 0xfb, 0xff, 0xf5, 0x01, 0xff, 0xfa, 0xfd, 0xef, 0xf2, 0x07,
  0xfe, 0xfe, 0xfd, 0x06, 0xf8, 0xfd, 0x04, 0xf9, 0xef, 0x00, 0xeb, 0x0a,
  0x02, 0x00, 0xe1, 0xfc, 0x06, 0xff, 0x0c, 0x03, 0xee, 0x00, 0xf7, 0x08,
  0xe4, 0xf1, 0xe9, 0xff, 0xfb, 0xf3, 0xfb, 0x02, 0x06, 0xeb, 0xf4, 0x00,
  0xf8, 0x08, 0xf4, 0xf4, 0x05, 0x03, 0xe1, 0x15, 0x09, 0x00, 0xed, 0xf9,
  0xfe, 0xfa, 0xfa, 0xf6, 0x05, 0xde, 0xf0, 0xee, 0xdb, 0xe8, 0xeb, 0x1a,
  0xfa, 0xf3, 0xe5, 0xea, 0x0d, 0xef, 0xe0, 0x00, 0xf3, 0xfb, 0xf5, 0xfd,
  0x01, 0xf7, 0xfd, 0x02, 0x00, 0xfe, 0x05, 0x05, 0x0d, 0xfc, 0x00, 0xfa,
  0x07, 0xf9, 0xff, 0xfd, 0x02, 0xf6, 0x10, 0x0f, 0xf7, 0x07, 0x0a, 0x02,
  0xff, 0x07, 0x04, 0x01, 0x0c, 0x07, 0x06, 0x06, 0x03, 0xe5, 0xf6, 0xf4,
  0xf6, 0xfe, 0xf4, 0xf3, 0x0b, 0xf4, 0x07, 0x06, 0x05, 0xf8, 0xee, 0xeb,
  0xf9, 0x01, 0xf6, 0xf7, 0xf1, 0x01, 0xf6, 0xf8, 0x06, 0xf6, 0x02, 0xfc,
  0xf9, 0x18, 0xf2, 0xfc, 0x1f, 0x0d, 0xf5, 0xf7, 0x18, 0x00, 0xf5, 0x00,
  0xff, 0xfe, 0x01, 0xf9, 0x01, 0xfd, 0xf5, 0x06, 0xec, 0x04, 0xe9, 0x09,
  0x23, 0x01, 0x03, 0xfa, 0x10, 0x06, 0xfe, 0xf9, 0x01, 0xf8, 0x05, 0xfd,
  0xf4, 0xef, 0xeb, 0xfe, 0x04, 0xf2, 0x08, 0xf3, 0x05, 0xed, 0xf8, 0x00,
  0xf5, 0xfa, 0xff, 0xfb, 0x01, 0xeb, 0xf7, 0x05, 0x00, 0x0b, 0xee, 0xf4,
  0x05, 0xf8, 0x0d, 0xf7, 0x00, 0xf6, 0xed, 0xf1, 0x08, 0xfb, 0x04, 0x03,
  0x01, 0xf8, 0x02, 0xf6, 0xf9, 0x03, 0xfc, 0xf8, 0xff, 0xff, 0x06, 0xf6,
  0x07, 0x03, 0x02, 0xf9, 0xf2, 0xf4, 0x05, 0x01, 0x01, 0xf1, 0xfe, 0xf5,
  0x02, 0xf5, 0xf6, 0x0a, 0x0d, 0x0f, 0x0c, 0x06, 0xef, 0x39, 0x07, 0x13,
  0xee, 0x10, 0x2d, 0x0c, 0x10, 0x09, 0x17, 0x0f, 0xef, 0x09, 0x02, 0x07,
  0xd3, 0xfd, 0x03, 0x09, 0xf4, 0xed, 0x01, 0x0e, 0xfc, 0xc7, 0x00, 0x07,
  0xf3, 0x00, 0xec, 0x1e, 0x0c, 0xf0, 0x01, 0x15, 0x10, 0x00, 0xee, 0x0e,
  0x06, 0xff, 0xfa, 0xe5, 0xff, 0x15, 0x0d, 0x0e, 0x03, 0x0c, 0xf7, 0xfc,
  0x06, 0xdc, 0x0b, 0x08, 0xfb, 0xf0, 0x11, 0xf9, 0x11, 0x07, 0xff, 0x0d,
  0xfb, 0xfd, 0xee, 0x14, 0xf0, 0xf3, 0x02, 0x00, 0xfd, 0xff, 0xd7, 0x2b,
  0xf3, 0x01, 0x0a, 0x0a, 0xf5, 0xfa, 0xf6, 0xfb, 0x18, 0x0c, 0xec, 0xfe,
  0x21, 0xe9, 0x0b, 0xd2, 0xff, 0xc8, 0x02, 0x07, 0xe5, 0x00, 0x04, 0x0c,
  0xd4, 0x0d, 0x07, 0x04, 0xf9, 0x06, 0xff, 0x04, 0xee, 0x04, 0xed, 0x01,
  0x06, 0xfe, 0x0e, 0x0a, 0x05, 0xe6, 0x09, 0x05, 0x03, 0xc6, 0x08, 0x02,
  0x0f, 0x00, 0xf3, 0x09, 0xff, 0x02, 0xfc, 0x20, 0x13, 0xf2, 0x0c, 0x04,
  0x06, 0xfe, 0xfb, 0x0a, 0xd9, 0xef, 0x08, 0x13, 0x0d, 0x09, 0xf5, 0xf6,
  0xf6, 0xf7, 0x02, 0x0f, 0xfe, 0x85, 0xfe, 0x08, 0x02, 0xff, 0xfd, 0x03,
  0x01, 0x06, 0xfe, 0xaa, 0xfd, 0x0c, 0xf2, 0x07, 0x29, 0x0a, 0xf5, 0x09,
  0xfc, 0x05, 0x07, 0xf4, 0xfa, 0x02, 0xf6, 0x03, 0xfc, 0x05, 0xef, 0x05,
  0xee, 0x16, 0x00, 0xf9, 0x09, 0x03, 0xf9, 0x16, 0x07, 0xf8, 0xf7, 0x07,
  0xff, 0xfa, 0xe6, 0xfb, 0xf6, 0xf2, 0x01, 0x0d, 0x02, 0xf9, 0x0a, 0x26,
  0xf9, 0xf6, 0x18, 0xe5, 0x19, 0xfa, 0xb8, 0x00, 0x0c, 0x0e, 0xf4, 0xec,
  0xf6, 0xff, 0xeb, 0x04, 0xf7, 0xfa, 0xfe, 0x03, 0xf1, 0xf7, 0x05, 0x0b,
  0x07, 0xfa, 0xf2, 0x00, 0x02, 0xfd, 0xfb, 0x0a, 0xf9, 0x09, 0xfd, 0x09,
  0x04, 0xe3, 0xff, 0x00, 0xf8, 0xed, 0xfa, 0x0f, 0x12, 0xfc, 0x0d, 0x01,
  0x16, 0xeb, 0xfd, 0xe9, 0x15, 0x0d, 0x05, 0xfe, 0xe7, 0x0e, 0xed, 0xf0,
  0x0a, 0x0f, 0xf7, 0x0b, 0xf9, 0xf1, 0xe7, 0x0e, 0x1b, 0xfa, 0x07, 0x03,
  0xf2, 0xfd, 0xf7, 0x00, 0x05, 0x07, 0xf6, 0xfa, 0x09, 0xf8, 0xe3, 0xfb,
  0xf9, 0xff, 0x07, 0x08, 0xc9, 0xe9, 0xe6, 0xff, 0xe8, 0xfd, 0x14, 0xf9,
  0x0f, 0xcf, 0xea, 0xf4, 0x08, 0xef, 0xdb, 0x12, 0xfe, 0xf0, 0xfa, 0xf7,
  0xff, 0xf9, 0xf9, 0x05, 0xf3, 0xf1, 0x07, 0xfb, 0x03, 0xec, 0xfc, 0xe6,
  0x05, 0x0b, 0x09, 0xeb, 0x01, 0xfb, 0x0a, 0xe2, 0xf8, 0xf2, 0xf8, 0x04,
  0x05, 0x07, 0xf7, 0xf5, 0xf1, 0x01, 0xf4, 0xf8, 0xf9, 0xfe, 0xfb, 0xf2,
  0xed, 0x05, 0x08, 0xfc, 0xf6, 0x0a, 0x03, 0xff, 0x06, 0xf6, 0xf7, 0xf9,
  0xfc, 0x0d, 0xe9, 0xf0, 0x07, 0x04, 0x0b, 0x04, 0xd9, 0xff, 0x00, 0x03,
  0x00, 0xf2, 0xf5, 0xfb, 0xfe, 0x00, 0xed, 0xe9, 0x00, 0xf2, 0xfd, 0xf9,
  0xe9, 0xf9, 0x10, 0xf9, 0x06, 0xf0, 0xe8, 0xfc, 0x04, 0xf4, 0xf1, 0xf4,
  0x07, 0xfe, 0x03, 0xfc, 0x05, 0xf7, 0xfc, 0xf7, 0x11, 0xf5, 0xf9, 0xfd,
  0xee, 0xfd, 0xfc, 0x01, 0xee, 0xfc, 0xf2, 0xf9, 0x1b, 0x01, 0x05, 0xf9,
  0xf7, 0x06, 0xf9, 0xec, 0xfb, 0xf3, 0x02, 0x04, 0xf7, 0x03, 0xef, 0xf9,
  0xfa, 0xf4, 0xfd, 0xfb, 0xf9, 0x17, 0x01, 0xf0, 0xf0, 0xfd, 0xef, 0xfc,
  0x02, 0x05, 0x09, 0xf6, 0xfc, 0xfe, 0x01, 0x0a, 0x01, 0x06, 0xf5, 0xfb,
  0xe7, 0xf7, 0xfc, 0xfd, 0xef, 0xff, 0xf4, 0x00, 0x0a, 0xfe, 0xfa, 0x01,
  0xf4, 0xff, 0x07, 0xf1, 0xf8, 0x0a, 0xef, 0xfc, 0x09, 0x01, 0x0a, 0xfa,
  0xf7, 0xf9, 0x08, 0x0c, 0x01, 0xfc, 0xfd, 0xfb, 0xf9, 0x02, 0xed, 0x0c,
  0xfc, 0xfa, 0x0f, 0xff, 0xff, 0x12, 0x08, 0x02, 0x04, 0xf9, 0xfd, 0x11,
  0xf7, 0x04, 0xfd, 0xf6, 0x06, 0xec, 0x0a, 0xed, 0xf7, 0xfc, 0x02, 0x01,
  0x06, 0x0f, 0xfb, 0xfe, 0x00, 0xe4, 0xf9, 0xf1, 0xf9, 0x00, 0x01, 0x05,
  0x05, 0x07, 0x03, 0xf7, 0xf9, 0xd2, 0x08, 0x0b, 0x01, 0xf8, 0xf3, 0xd5,
  0x04, 0xfe, 0x08, 0x09, 0x0c, 0x09, 0xf5, 0x0f, 0xfc, 0xf4, 0xfa, 0xf3,
  0xfb, 0x12, 0xf3, 0xf0, 0xdf, 0xfa, 0xe6, 0x0c, 0xf4, 0xf1, 0x09, 0x14,
  0x04, 0xd9, 0x02, 0xf7, 0x10, 0xd4, 0x0b, 0xd2, 0xf4, 0xfe, 0xef, 0x13,
  0xd1, 0x09, 0x02, 0x04, 0x09, 0xfa, 0xfc, 0x1b, 0xe2, 0x02, 0xf6, 0xe3,
  0x00, 0xf9, 0x00, 0x06, 0xf3, 0xe4, 0xff, 0x0b, 0x03, 0xd5, 0xf5, 0xd5,
  0xf5, 0xea, 0xff, 0x07, 0xe0, 0xfc, 0xef, 0xfa, 0xe8, 0xf9, 0xf6, 0xf9,
  0xf5, 0xf5, 0x01, 0xf9, 0xf0, 0xf4, 0xff, 0xfc, 0x06, 0x00, 0x01, 0x04,
  0xfc, 0xc5, 0xf6, 0xf6, 0xef, 0xe6, 0xf9, 0xf2, 0x03, 0xf9, 0xf7, 0x00,
  0xf5, 0x0d, 0xfa, 0xec, 0xce, 0xf7, 0xf5, 0xf5, 0x0f, 0xfe, 0xfc, 0x0e,
  0xf6, 0xfc, 0xff, 0xfa, 0xfd, 0xfe, 0x0a, 0xf8, 0xf1, 0x11, 0x00, 0xec,
  0x0a, 0x08, 0x06, 0x0e, 0x0a, 0xf5, 0xfb, 0x08, 0x04, 0xf3, 0x01, 0x0d,
  0x07, 0xf4, 0xf9, 0xed, 0xcf, 0xf7, 0x05, 0xe3, 0x05, 0x02, 0xfc, 0xed,
  0x03, 0x08, 0xf7, 0xfc, 0x12, 0xf0, 0xee, 0xfa, 0xf5, 0x04, 0xf4, 0xf7,
  0x0d, 0x02, 0xf8, 0xef, 0x09, 0xfc, 0x02, 0x10, 0x04, 0xf8, 0xec, 0x04,
  0x03, 0xfd, 0xf1, 0xf6, 0x00, 0xfe, 0x03, 0x08, 0x07, 0xf9, 0xe8, 0xea,
  0x01, 0xfd, 0xf3, 0x02, 0x0f, 0xfb, 0xfc, 0xd9, 0xfa, 0x08, 0xe8, 0xf8,
  0x0a, 0xee, 0xf0, 0xf1, 0xfa, 0xed, 0xf0, 0xf1, 0xf1, 0xfa, 0xf3, 0xff,
  0xf9, 0xfa, 0xff, 0x0e, 0xf6, 0xf8, 0xee, 0x01, 0x08, 0xff, 0xe9, 0xf6,
  0x02, 0xfe, 0x05, 0xf4, 0xf3, 0x00, 0xf4, 0xed, 0xed, 0x0c, 0x08, 0x14,
  0xf1, 0x05, 0xea, 0xfd, 0x0c, 0xf6, 0x09, 0x02, 0x0c, 0xe3, 0x0d, 0xfc,
  0x0c, 0xf7, 0x04, 0x03, 0xf1, 0x00, 0x01, 0xfa, 0x03, 0xff, 0xff, 0x0d,
  0xed, 0x01, 0x07, 0xf7, 0xee, 0xfb, 0x11, 0x14, 0xfb, 0x04, 0x03, 0x0c,
  0x0b, 0x0e, 0x12, 0xfc, 0x1b, 0x0f, 0x0b, 0x13, 0xf3, 0x01, 0x13, 0xfa,
  0xe7, 0x00, 0x03, 0x02, 0x0a, 0x1f, 0x01, 0xfe, 0xe4, 0x08, 0x0e, 0xea,
  0xff, 0x0c, 0x05, 0x05, 0xff, 0x0c, 0xf4, 0x02, 0xf7, 0xff, 0x0d, 0xf7,
  0x14, 0x01, 0xf9, 0x06, 0xe7, 0xf9, 0x03, 0x06, 0xe6, 0x0c, 0x01, 0x06,
  0x09, 0x0a, 0x09, 0x19, 0xfe, 0x00, 0x08, 0xfb, 0x00, 0x01, 0x01, 0x00,
  0x03, 0xfa, 0xf5, 0x02, 0xf8, 0xfd, 0xfc, 0x02, 0x0a, 0x02, 0xfb, 0xf1,
  0x03, 0xf0, 0xfa, 0xf7, 0xf6, 0x01, 0xfb, 0x01, 0xfc, 0xfd, 0xf4, 0xf7,
  0x02, 0x0a, 0x0f, 0x01, 0xfd, 0x08, 0x02, 0xf5, 0xf8, 0x0a, 0xf0, 0xfc,
  0xe1, 0x06, 0x05, 0xff, 0xef, 0xfe, 0x00, 0xf7, 0x04, 0x04, 0xf5, 0x06,
  0xfc, 0x03, 0xf2, 0xfa, 0xf2, 0xfa, 0x0b, 0x04, 0xf3, 0x01, 0xf7, 0x05,
  0x04, 0xfe, 0xfb, 0x00, 0xec, 0x00, 0x02, 0x01, 0x05, 0x05, 0x01, 0x0a,
  0xe4, 0xf2, 0x08, 0xfa, 0xf3, 0xff, 0x13, 0xf8, 0xff, 0x04, 0x13, 0xf3,
  0x07, 0xe6, 0xf5, 0x07, 0xec, 0xfb, 0xfb, 0xf2, 0xfe, 0xfa, 0xf2, 0x03,
  0x09, 0x01, 0x03, 0xf6, 0x11, 0xfb, 0x01, 0x02, 0x04, 0x07, 0x03, 0xef,
  0xf8, 0xec, 0x07, 0xf6, 0xef, 0x0b, 0xfc, 0xf5, 0x0b, 0xef, 0xf9, 0x12,
  0xfc, 0x01, 0x0d, 0xfb, 0xf1, 0xf7, 0xfc, 0xfc, 0xf5, 0xfb, 0x02, 0xf6,
  0xfa, 0xfd, 0x05, 0x00, 0xfb, 0xf6, 0xf9, 0x02, 0xf8, 0x01, 0xfd, 0x02,
  0x01, 0x01, 0xf4, 0xee, 0xef, 0xf4, 0xfc, 0xea, 0x09, 0x02, 0x04, 0x1b,
  0x14, 0xca, 0xf9, 0xf0, 0x01, 0x0d, 0xbe, 0x01, 0xf3, 0x0f, 0xf1, 0xfe,
  0x11, 0xf5, 0xe3, 0x04, 0x20, 0x03, 0xf9, 0xf5, 0x15, 0xf2, 0x05, 0x13,
  0xe8, 0x2e, 0x02, 0xf3, 0x01, 0xfd, 0xf4, 0x08, 0xfa, 0xe1, 0x04, 0x03,
  0xe9, 0x01, 0x07, 0xfa, 0xff, 0xf4, 0xed, 0x0c, 0xfb, 0xda, 0xff, 0xc5,
  0xf9, 0xfb, 0xf3, 0x02, 0x0f, 0xd6, 0xfe, 0xfe, 0x13, 0xf8, 0xf0, 0x0b,
  0x0b, 0x00, 0xf9, 0xea, 0x07, 0x00, 0x0c, 0xde, 0xfb, 0xfd, 0xfd, 0x02,
  0xff, 0x06, 0xfb, 0xff, 0xf9, 0xfe, 0xee, 0xf4, 0xf5, 0x0a, 0xf8, 0x0e,
  0x0f, 0x0d, 0xfa, 0xf2, 0x16, 0xf5, 0x03, 0x25, 0x10, 0xed, 0x08, 0x0b,
  0xf7, 0x04, 0x13, 0x07, 0xf9, 0x10, 0x10, 0x0a, 0x02, 0x12, 0x03, 0x06,
  0x09, 0x0b, 0x00, 0xf2, 0x0c, 0x0b, 0x0e, 0x13, 0x01, 0x0c, 0x09, 0x0a,
  0xfd, 0x06, 0x06, 0x0c, 0xf9, 0xf8, 0x08, 0x1a, 0x08, 0xbc, 0xee, 0xef,
  0x12, 0xf7, 0x1e, 0x0a, 0xf2, 0xfd, 0xee, 0xf7, 0x09, 0x10, 0xe4, 0x09,
  0xfc, 0xf8, 0xea, 0xfc, 0x07, 0xdb, 0xfe, 0xfa, 0xea, 0x14, 0xe8, 0xf5,
  0xf6, 0xff, 0xf5, 0xf3, 0xf6, 0xf3, 0x00, 0x25, 0x17, 0xf0, 0x0e, 0xe9,
  0x07, 0xea, 0xfa, 0x0d, 0xfe, 0xdd, 0xf8, 0x0d, 0xf7, 0xf4, 0x15, 0xf8,
  0xf9, 0x01, 0x0c, 0xf1, 0x07, 0xe5, 0xf7, 0xfc, 0xf4, 0xfd, 0x12, 0xe8,
  0xf0, 0x0f, 0x07, 0x16, 0x01, 0x10, 0x0b, 0x0c, 0xe2, 0x11, 0x04, 0x00,
  0x1a, 0x07, 0xf6, 0x31, 0xfe, 0xef, 0x04, 0x0b, 0xea, 0x01, 0x0b, 0x05,
  0x1b, 0x07, 0xf9, 0x02, 0x02, 0xff, 0x08, 0x12, 0xf5, 0x03, 0xfc, 0xfe,
  0xfe, 0x19, 0x0e, 0x03, 0x04, 0x0a, 0x07, 0x05, 0x1d, 0x0d, 0xea, 0x00,
  0x14, 0x05, 0x04, 0x07, 0xf9, 0x09, 0x12, 0x0f, 0xff, 0xff, 0x02, 0xf9,
  0xfe, 0x06, 0xfc, 0xf1, 0x04, 0xf0, 0xf1, 0xf0, 0xff, 0xe5, 0x0f, 0xf3,
  0x05, 0xf0, 0xf6, 0x03, 0xf4, 0xfa, 0x07, 0xec, 0x0f, 0x0e, 0xfa, 0xef,
  0x13, 0x0d, 0xf5, 0x03, 0xea, 0x00, 0xf6, 0xef, 0xe7, 0xfa, 0xef, 0x04,
  0xdb, 0xfd, 0x01, 0xfd, 0xef, 0x0e, 0xee, 0xef, 0x10, 0x12, 0xff, 0xf0,
  0xdc, 0xf9, 0x00, 0xea, 0xfe, 0x17, 0xf8, 0x03, 0x15, 0x08, 0x1c, 0xf4,
  0xd8, 0xe6, 0xf4, 0xfd, 0xe8, 0xf8, 0xeb, 0xfb, 0xe8, 0xf7, 0xf5, 0x0c,
  0x04, 0xfd, 0x07, 0x16, 0x0c, 0xe6, 0xe2, 0xf2, 0xea, 0x0b, 0xef, 0xf9,
  0xee, 0x0d, 0x02, 0x00, 0xe2, 0xea, 0x20, 0x0c, 0xf7, 0xf8, 0x03, 0x0b,
  0x03, 0xfd, 0xe7, 0x0e, 0xe4, 0x07, 0x01, 0x09, 0xe9, 0xf8, 0x06, 0x15,
  0x07, 0xff, 0xec, 0x0f, 0xe9, 0x07, 0xea, 0x1f, 0x02, 0x0e, 0x03, 0x08,
  0x13, 0xe7, 0x01, 0xff, 0x16, 0xcf, 0xf9, 0x0b, 0xf8, 0xf7, 0xe3, 0xfa,
  0x06, 0x05, 0x0a, 0x00, 0xf3, 0xf8, 0x1c, 0x0d, 0x0e, 0x04, 0xd0, 0xf2,
  0x0a, 0xfd, 0xe9, 0xf4, 0x08, 0x03, 0xf3, 0xf3, 0x03, 0xfd, 0xf7, 0x00,
  0x04, 0xf7, 0x0b, 0x02, 0xf9, 0xf1, 0xe9, 0xfc, 0x02, 0xfd, 0x04, 0x10,
  0x14, 0x09, 0x10, 0x08, 0x16, 0xfe, 0xf3, 0xed, 0xdb, 0x05, 0xef, 0xfb,
  0x03, 0xf9, 0x11, 0x0a, 0x16, 0xfd, 0x09, 0x02, 0x0e, 0x0a, 0x09, 0x03,
  0xff, 0xdf, 0xf0, 0x09, 0xfd, 0xf3, 0x19, 0xfe, 0xf0, 0xfe, 0xff, 0x08,
  0xf6, 0xf8, 0xf6, 0xfa, 0xef, 0xf6, 0xf7, 0x05, 0xff, 0x0e, 0xf4, 0x01,
  0xfd, 0xe8, 0x0c, 0x06, 0xfb, 0x04, 0xf9, 0xfb, 0x12, 0xf8, 0xeb, 0x08,
  0x06, 0x03, 0x0c, 0xfe, 0xfb, 0x0c, 0x0b, 0x16, 0x01, 0x05, 0xf0, 0x09,
  0xf8, 0xff, 0xf4, 0xfe, 0x07, 0x09, 0xff, 0x0c, 0x05, 0xe7, 0xed, 0xfe,
  0x0a, 0xef, 0x12, 0x03, 0xfa, 0xf0, 0xeb, 0xf6, 0xf0, 0x0f, 0xec, 0x02,
  0xd8, 0xfc, 0x09, 0x05, 0x01, 0xf4, 0xe0, 0xf5, 0xe5, 0x07, 0x02, 0xfa,
  0x00, 0xf4, 0x05, 0xec, 0xf6, 0xe7, 0x0a, 0xf6, 0xfb, 0x0e, 0xdd, 0xf1,
  0x0a, 0x04, 0x07, 0xfc, 0x09, 0xea, 0xe3, 0xec, 0xee, 0xe5, 0xee, 0xe4,
  0xe3, 0xfd, 0x01, 0x00, 0xfa, 0xfa, 0x04, 0xeb, 0x06, 0xf1, 0xf3, 0xe7,
  0xf8, 0xf9, 0xf9, 0xed, 0xeb, 0x05, 0xe6, 0xe5, 0xf9, 0x08, 0xf5, 0xfe,
  0xf5, 0x03, 0x07, 0xe5, 0x06, 0x08, 0xee, 0xf0, 0xe8, 0xfb, 0x04, 0xf3,
  0xfc, 0xf3, 0x1d, 0x12, 0x11, 0xf8, 0xf2, 0xfe, 0xfe, 0xf6, 0xdf, 0x07,
  0xee, 0x0b, 0xf1, 0xeb, 0xfd, 0xf9, 0xfe, 0xf6, 0xf7, 0xfb, 0x08, 0x04,
  0xf2, 0x00, 0xf9, 0x08, 0x07, 0xfd, 0xff, 0xf6, 0xf6, 0xf5, 0xf7, 0xfb,
  0xfe, 0xfc, 0xfb, 0xfe, 0x06, 0xee, 0x00, 0xf6, 0xff, 0xef, 0xec, 0x03,
  0xf7, 0xf4, 0xee, 0x02, 0x05, 0xeb, 0x04, 0x23, 0xf2, 0xf3, 0xf9, 0x07,
  0xf3, 0xfe, 0xf6, 0xed, 0x07, 0xf4, 0xf7, 0xf8, 0xee, 0x02, 0xf0, 0xf2,
  0x08, 0xcc, 0xf6, 0xfe, 0x10, 0x0a, 0xde, 0xfb, 0x05, 0x03, 0xfd, 0xfb,
  0x0b, 0xff, 0xff, 0x03, 0xe9, 0xfb, 0x15, 0xff, 0xf3, 0x10, 0xfd, 0x0c,
  0x0a, 0x0f, 0xe9, 0x09, 0x0c, 0xfd, 0x04, 0xfd, 0x07, 0x05, 0xfb, 0xf3,
  0xf8, 0xff, 0xfe, 0x02, 0xeb, 0xfc, 0xf6, 0xf9, 0x09, 0x00, 0xf5, 0xfd,
  0xfb, 0xf3, 0xed, 0xea, 0xfd, 0xe5, 0xe9, 0xd5, 0xf9, 0xfc, 0x03, 0xf6,
  0xe5, 0x00, 0xe4, 0xf2, 0xf4, 0xfa, 0xe4, 0xfa, 0xfe, 0x01, 0xfc, 0xdb,
  0x00, 0xf1, 0xf3, 0x00, 0xe8, 0xfb, 0x0a, 0xf6, 0xe3, 0x03, 0xf7, 0x06,
  0xf9, 0x02, 0xf1, 0xfc, 0xe4, 0xfb, 0xe4, 0xf9, 0xf4, 0x04, 0x02, 0x0c,
  0xfb, 0xe0, 0xf7, 0x00, 0x00, 0xda, 0xf0, 0x00, 0x08, 0x07, 0x10, 0xee,
  0x01, 0x08, 0x05, 0x27, 0xfb, 0x01, 0xfa, 0xec, 0x10, 0xf8, 0x0d, 0x0b,
  0xfa, 0x03, 0x0b, 0xf9, 0xfe, 0x0b, 0x04, 0x10, 0x07, 0x03, 0x0b, 0xf5,
  0x09, 0xd3, 0x01, 0xfc, 0x10, 0x0d, 0x07, 0xff, 0xfb, 0x15, 0xfb, 0x05,
  0x06, 0x0b, 0xf5, 0x07, 0xef, 0x0a, 0x08, 0xf7, 0x08, 0x04, 0x0d, 0x0e,
  0xf5, 0xfe, 0xf0, 0x06, 0xf8, 0x0f, 0xf2, 0x06, 0xf3, 0x06, 0xfd, 0x09,
  0x0e, 0x02, 0x0d, 0xf2, 0x14, 0x02, 0x04, 0x03, 0x0a, 0x09, 0xfb, 0x0e,
  0x27, 0x0f, 0x0f, 0x06, 0x11, 0x09, 0x0a, 0xe0, 0x14, 0x0c, 0x04, 0x08,
  0xf6, 0xf7, 0xf3, 0x11, 0x04, 0xfd, 0xf8, 0xeb, 0x00, 0xea, 0xee, 0xf0,
  0x05, 0xf7, 0x01, 0xf5, 0xf4, 0x07, 0x01, 0xfa, 0xff, 0xfb, 0xfe, 0xfd,
  0xfe, 0x0a, 0x04, 0xe4, 0xf5, 0xfa, 0x07, 0xfb, 0xe2, 0xfc, 0xfe, 0xf3,
  0xf5, 0xf9, 0xfa, 0xfe, 0x0b, 0x08, 0xff, 0xfd, 0x03, 0x0f, 0x04, 0x04,
  0xfa, 0x00, 0xf0, 0xfb, 0x06, 0x0d, 0xfe, 0x0e, 0xfd, 0x0a, 0x0a, 0x08,
  0x04, 0xfc, 0x01, 0xfd, 0xfd, 0x08, 0x03, 0xfc, 0xff, 0xf6, 0x09, 0x15,
  0x03, 0x0e, 0xff, 0xf7, 0x06, 0x0c, 0x02, 0x06, 0x04, 0x07, 0xf7, 0xf9,
  0xfb, 0x11, 0xf9, 0x11, 0xf4, 0x0c, 0xf7, 0xff, 0x0d, 0x09, 0xf3, 0x0a,
  0xef, 0xfc, 0x06, 0x08, 0xff, 0xf5, 0x0a, 0xff, 0x0e, 0x10, 0x11, 0x13,
  0x18, 0x06, 0x03, 0x0d, 0x08, 0x0b, 0x03, 0xfb, 0x1e, 0x06, 0x05, 0x04,
  0xfd, 0x08, 0xf2, 0x00, 0x00, 0x09, 0x0e, 0xff, 0x01, 0x0a, 0xfc, 0x08,
  0x07, 0x14, 0xfb, 0x0b, 0xff, 0x02, 0xf5, 0x01, 0x09, 0xff, 0xff, 0xfa,
  0xf1, 0xfe, 0x08, 0xfa, 0x0b, 0xff, 0x08, 0x0b, 0xf4, 0xfb, 0xf2, 0xfe,
  0x00, 0xf6, 0x09, 0x09, 0x08, 0x01, 0xf9, 0x02, 0x06, 0xf9, 0x03, 0x01,
  0x01, 0x10, 0x0e, 0xf5, 0x0e, 0x14, 0x0f, 0xdb, 0xee, 0xfd, 0x25, 0xec,
  0x0a, 0x0e, 0x0d, 0x0a, 0xf8, 0x0a, 0xfa, 0xfe, 0xed, 0x04, 0x0f, 0x0e,
  0xfa, 0x04, 0x11, 0xf8, 0xf9, 0xd8, 0x07, 0x0d, 0x0a, 0xfd, 0x01, 0xf5,
  0x04, 0x01, 0x0d, 0x81, 0xee, 0x04, 0xef, 0xfb, 0xf2, 0x03, 0xfb, 0x0e,
  0x01, 0x00, 0xf5, 0xe0, 0x07, 0x0e, 0x0f, 0xfb, 0xf5, 0xfd, 0xf1, 0x00,
  0x27, 0x03, 0x02, 0x01, 0xf7, 0x06, 0x05, 0xf6, 0x10, 0xff, 0x10, 0xea,
  0x0d, 0x00, 0xf4, 0x08, 0x02, 0x03, 0x06, 0xee, 0x07, 0x0b, 0xf4, 0x25,
  0xff, 0x0c, 0x04, 0x02, 0xef, 0xff, 0xfb, 0x00, 0xfb, 0x11, 0xff, 0xf6,
  0x06, 0x06, 0xec, 0xf9, 0x08, 0x10, 0xf4, 0xf2, 0xff, 0x00, 0xfa, 0xf4,
  0xfb, 0xf6, 0xf0, 0xfd, 0xf3, 0xff, 0x00, 0x0b, 0x01, 0x0a, 0xf5, 0x0d,
  0xfa, 0x07, 0x01, 0xf6, 0xfe, 0x00, 0x03, 0xfc, 0xff, 0xf8, 0xf9, 0x07,
  0xff, 0x0b, 0x08, 0xf6, 0x0b, 0x03, 0xd3, 0x0f, 0xfa, 0x04, 0xff, 0xfb,
  0xec, 0xfd, 0x09, 0x04, 0x03, 0xf5, 0xe5, 0xdd, 0xee, 0xf1, 0xff, 0x06,
  0x06, 0xfd, 0x03, 0xf9, 0xf9, 0xf7, 0x06, 0x05, 0xf5, 0x05, 0xf7, 0x05,
  0xeb, 0xff, 0x03, 0x0e, 0xe6, 0xf8, 0x05, 0x0c, 0xf5, 0xfd, 0x06, 0x1b,
  0xec, 0xe9, 0x10, 0x05, 0xf4, 0xf4, 0xd6, 0x1f, 0x06, 0xfd, 0x01, 0xff,
  0xed, 0xfe, 0x0a, 0xf8, 0xf1, 0xf8, 0x06, 0xf9, 0x01, 0x04, 0x0b, 0x05,
  0xf8, 0xff, 0x04, 0xed, 0xe3, 0x0d, 0xfd, 0xe5, 0xe9, 0xfe, 0x02, 0x03,
  0xe3, 0x09, 0x00, 0xf7, 0xf7, 0xfc, 0xee, 0x05, 0xe7, 0xe8, 0x01, 0xf3,
  0xda, 0xfe, 0x0e, 0x0a, 0x01, 0xf4, 0x0b, 0x04, 0xf2, 0x03, 0xf7, 0xf7,
  0xeb, 0xf2, 0xf6, 0xf4, 0xff, 0x02, 0x00, 0xf8, 0xff, 0xf0, 0x06, 0x03,
  0x0a, 0xef, 0xf8, 0x12, 0xfb, 0xf4, 0xfa, 0xf7, 0xf8, 0xf1, 0xdd, 0xf5,
  0xfd, 0xda, 0x0b, 0x03, 0xec, 0xf1, 0xfa, 0x01, 0xeb, 0xfe, 0xda, 0xf5,
  0xf0, 0x06, 0xe2, 0xfc, 0x0d, 0xea, 0x00, 0x03, 0xfd, 0x1c, 0xe2, 0xd7,
  0x10, 0x07, 0xee, 0x04, 0x22, 0xf4, 0xf6, 0xe4, 0x00, 0xe2, 0x04, 0xf0,
  0x00, 0xf1, 0x00, 0x09, 0xf0, 0xdf, 0xfe, 0x15, 0x0a, 0xdb, 0xf0, 0x00,
  0x0d, 0x01, 0xed, 0xd4, 0xf3, 0xe9, 0xff, 0xda, 0xd2, 0xfc, 0xf2, 0x02,
  0xee, 0x0c, 0xf0, 0x05, 0xf6, 0x02, 0x01, 0x0a, 0xf6, 0x05, 0xf4, 0x00,
  0xcf, 0x09, 0x05, 0xf6, 0xf6, 0xe3, 0x07, 0xfd, 0x04, 0x0b, 0x17, 0xff,
  0xff, 0x00, 0xf8, 0x08, 0x0c, 0xf5, 0xea, 0xfa, 0xef, 0xfb, 0xf7, 0xf8,
  0xdf, 0x07, 0x04, 0xf8, 0x01, 0x00, 0xf6, 0xfe, 0xf8, 0xf9, 0xe3, 0x12,
  0xfb, 0x0b, 0xee, 0xfc, 0x02, 0xeb, 0xfc, 0xf6, 0xf0, 0xd6, 0xf8, 0xf8,
  0xf6, 0xe2, 0xec, 0xff, 0x00, 0xf5, 0xfc, 0xfc, 0xeb, 0x0d, 0x01, 0x00,
  0xfc, 0xf7, 0xf2, 0xf6, 0xf1, 0xff, 0xf3, 0xfc, 0x0e, 0xfb, 0xfa, 0xf9,
  0xfc, 0xf4, 0xfc, 0x0b, 0x00, 0x03, 0xee, 0xfc, 0xfa, 0xe4, 0xe1, 0xf6,
  0xf3, 0xf3, 0x06, 0xf5, 0xf3, 0xf4, 0xf7, 0x09, 0xf4, 0xfc, 0xff, 0xeb,
  0xf0, 0xf1, 0xe0, 0xf5, 0x00, 0xff, 0x04, 0xf7, 0xfa, 0xe8, 0x04, 0xf1,
  0xfc, 0xef, 0xf2, 0xfb, 0x06, 0xe4, 0xf0, 0x02, 0xfd, 0xfa, 0x0d, 0xf8,
  0xfe, 0xf9, 0x06, 0xf9, 0x08, 0xfe, 0x04, 0xfc, 0x03, 0xfc, 0xee, 0x09,
  0xfe, 0x0c, 0xe2, 0xf6, 0x03, 0xdf, 0x05, 0xf8, 0xf1, 0x04, 0xef, 0x02,
  0xfc, 0xfe, 0xfc, 0xff, 0x03, 0x05, 0xfa, 0x08, 0x05, 0x00, 0x09, 0xfa,
  0x07, 0x05, 0xf9, 0xf9, 0x01, 0xfe, 0x06, 0xfe, 0x0a, 0xff, 0xf7, 0xfa,
  0x01, 0x0c, 0xf8, 0x05, 0xfe, 0x09, 0x00, 0xf3, 0x1a, 0xff, 0xff, 0xff,
  0x04, 0x00, 0x00, 0x00, 0x28, 0x00, 0x00, 0x00, 0x46, 0x00, 0x00, 0x00,
  0x11, 0x00, 0x00, 0x00, 0xde, 0xff, 0xff, 0xff, 0xa3, 0xff, 0xff, 0xff,
  0xeb, 0xff, 0xff, 0xff, 0x25, 0x00, 0x00, 0x00, 0xdb, 0xff, 0xff, 0xff,
  0x4c, 0x00, 0x00, 0x00, 0x05, 0x00, 0x00, 0x00, 0x10, 0x00, 0x00, 0x00,
  0x4e, 0xff, 0xff, 0xff, 0x04, 0x00, 0x00, 0x00, 0x08, 0x00, 0x00, 0x00,
  0xff, 0xff, 0xff, 0xff, 0x00, 0x02, 0x00, 0x00, 0x30, 0xf1, 0xff, 0xff,
  0x34, 0xf1, 0xff, 0xff, 0x0f, 0x00, 0x00, 0x00, 0x4d, 0x4c, 0x49, 0x52,
  0x20, 0x43, 0x6f, 0x6e, 0x76, 0x65, 0x72, 0x74, 0x65, 0x64, 0x2e, 0x00,
  0x01, 0x00, 0x00, 0x00, 0x14, 0x00, 0x00, 0x00, 0x00, 0x00, 0x0e, 0x00,
  0x18, 0x00, 0x14, 0x00, 0x10, 0x00, 0x0c, 0x00, 0x08, 0x00, 0x04, 0x00,
  0x0e, 0x00, 0x00, 0x00, 0x14, 0x00, 0x00, 0x00, 0x1c, 0x00, 0x00, 0x00,
  0xc0, 0x01, 0x00, 0x00, 0xc4, 0x01, 0x00, 0x00, 0xc8, 0x01, 0x00, 0x00,
  0x04, 0x00, 0x00, 0x00, 0x6d, 0x61, 0x69, 0x6e, 0x00, 0x00, 0x00, 0x00,
  0x06, 0x00, 0x00, 0x00, 0x5c, 0x01, 0x00, 0x00, 0x0c, 0x01, 0x00, 0x00,
  0xcc, 0x00, 0x00, 0x00, 0xa4, 0x00, 0x00, 0x00, 0x60, 0x00, 0x00, 0x00,
  0x14, 0x00, 0x00, 0x00, 0x00, 0x00, 0x0e, 0x00, 0x1a, 0x00, 0x14, 0x00,
  0x10, 0x00, 0x0c, 0x00, 0x0b, 0x00, 0x04, 0x00, 0x0e, 0x00, 0x00, 0x00,
  0x1c, 0x00, 0x00, 0x00, 0x00, 0x00, 0x00, 0x09, 0x1c, 0x00, 0x00, 0x00,
  0x20, 0x00, 0x00, 0x00, 0x03, 0x00, 0x00, 0x00, 0x00, 0x00, 0x06, 0x00,
  0x08, 0x00, 0x04, 0x00, 0x06, 0x00, 0x00, 0x00, 0x00, 0x00, 0x80, 0x3f,
  0x01, 0x00, 0x00, 0x00, 0x0f, 0x00, 0x00, 0x00, 0x01, 0x00, 0x00, 0x00,
  0x0e, 0x00, 0x00, 0x00, 0x00, 0x00, 0x0e, 0x00, 0x18, 0x00, 0x14, 0x00,
  0x10, 0x00, 0x0c, 0x00, 0x0b, 0x00, 0x04, 0x00, 0x0e, 0x00, 0x00, 0x00,
  0x14, 0x00, 0x00, 0x00, 0x00, 0x00, 0x00, 0x08, 0x10, 0x00, 0x00, 0x00,
  0x14, 0x00, 0x00, 0x00, 0x02, 0x00, 0x00, 0x00, 0x14, 0xf2, 0xff, 0xff,
  0x01, 0x00, 0x00, 0x00, 0x0e, 0x00, 0x00, 0x00, 0x03, 0x00, 0x00, 0x00,
  0x0d, 0x00, 0x00, 0x00, 0x03, 0x00, 0x00, 0x00, 0x02, 0x00, 0x00, 0x00,
  0x00, 0x00, 0x0a, 0x00, 0x10, 0x00, 0x0c, 0x00, 0x08, 0x00, 0x04, 0x00,
  0x0a, 0x00, 0x00, 0x00, 0x0c, 0x00, 0x00, 0x00, 0x10, 0x00, 0x00, 0x00,
  0x01, 0x00, 0x00, 0x00, 0x01, 0x00, 0x00, 0x00, 0x0d, 0x00, 0x00, 0x00,
  0x02, 0x00, 0x00, 0x00, 0x0c, 0x00, 0x00, 0x00, 0x01, 0x00, 0x00, 0x00,
  0x86, 0xff, 0xff, 0xff, 0x10, 0x00, 0x00, 0x00, 0x00, 0x00, 0x00, 0x01,
  0x18, 0x00, 0x00, 0x00, 0x1c, 0x00, 0x00, 0x00, 0x78, 0xff, 0xff, 0xff,
  0x00, 0x00, 0x00, 0x01, 0x02, 0x00, 0x00, 0x00, 0x02, 0x00, 0x00, 0x00,
  0x01, 0x00, 0x00, 0x00, 0x0c, 0x00, 0x00, 0x00, 0x03, 0x00, 0x00, 0x00,
  0x0b, 0x00, 0x00, 0x00, 0x05, 0x00, 0x00, 0x00, 0x04, 0x00, 0x00, 0x00,
  0xc2, 0xff, 0xff, 0xff, 0x10, 0x00, 0x00, 0x00, 0x00, 0x00, 0x00, 0x01,
  0x18, 0x00, 0x00, 0x00, 0x1c, 0x00, 0x00, 0x00, 0xb4, 0xff, 0xff, 0xff,
  0x00, 0x00, 0x00, 0x01, 0x02, 0x00, 0x00, 0x00, 0x02, 0x00, 0x00, 0x00,
  0x01, 0x00, 0x00, 0x00, 0x0b, 0x00, 0x00, 0x00, 0x03, 0x00, 0x00, 0x00,
  0x0a, 0x00, 0x00, 0x00, 0x07, 0x00, 0x00, 0x00, 0x06, 0x00, 0x00, 0x00,
  0x00, 0x00, 0x0e, 0x00, 0x14, 0x00, 0x00, 0x00, 0x10, 0x00, 0x0c, 0x00,
  0x0b, 0x00, 0x04, 0x00, 0x0e, 0x00, 0x00, 0x00, 0x1c, 0x00, 0x00, 0x00,
  0x00, 0x00, 0x00, 0x01, 0x24, 0x00, 0x00, 0x00, 0x28, 0x00, 0x00, 0x00,
  0x0c, 0x00, 0x10, 0x00, 0x00, 0x00, 0x0c, 0x00, 0x08, 0x00, 0x07, 0x00,
  0x0c, 0x00, 0x00, 0x00, 0x00, 0x00, 0x00, 0x01, 0x02, 0x00, 0x00, 0x00,
  0x02, 0x00, 0x00, 0x00, 0x01, 0x00, 0x00, 0x00, 0x0a, 0x00, 0x00, 0x00,
  0x03, 0x00, 0x00, 0x00, 0x00, 0x00, 0x00, 0x00, 0x09, 0x00, 0x00, 0x00,
  0x08, 0x00, 0x00, 0x00, 0x01, 0x00, 0x00, 0x00, 0x0f, 0x00, 0x00, 0x00,
  0x01, 0x00, 0x00, 0x00, 0x00, 0x00, 0x00, 0x00, 0x10, 0x00, 0x00, 0x00,
  0xfc, 0x0c, 0x00, 0x00, 0x9c, 0x0c, 0x00, 0x00, 0x20, 0x0c, 0x00, 0x00,
  0xbc, 0x0b, 0x00, 0x00, 0xc8, 0x09, 0x00, 0x00, 0xe4, 0x07, 0x00, 0x00,
  0xb0, 0x06, 0x00, 0x00, 0x8c, 0x05, 0x00, 0x00, 0xb8, 0x04, 0x00, 0x00,
  0xa4, 0x03, 0x00, 0x00, 0xe0, 0x02, 0x00, 0x00, 0x14, 0x02, 0x00, 0x00,
  0x48, 0x01, 0x00, 0x00, 0xdc, 0x00, 0x00, 0x00, 0x60, 0x00, 0x00, 0x00,
  0x04, 0x00, 0x00, 0x00, 0x5a, 0xf3, 0xff, 0xff, 0x00, 0x00, 0x00, 0x01,
  0x14, 0x00, 0x00, 0x00, 0x30, 0x00, 0x00, 0x00, 0x10, 0x00, 0x00, 0x00,
  0x00, 0x00, 0x00, 0x09, 0x34, 0x00, 0x00, 0x00, 0x44, 0xf3, 0xff, 0xff,
  0x08, 0x00, 0x00, 0x00, 0x10, 0x00, 0x00, 0x00, 0x01, 0x00, 0x00, 0x00,
  0x80, 0xff, 0xff, 0xff, 0xff, 0xff, 0xff, 0xff, 0x01, 0x00, 0x00, 0x00,
  0x00, 0x00, 0x80, 0x3b, 0x08, 0x00, 0x00, 0x00, 0x49, 0x64, 0x65, 0x6e,
  0x74, 0x69, 0x74, 0x79, 0x00, 0x00, 0x00, 0x00, 0x02, 0x00, 0x00, 0x00,
  0x01, 0x00, 0x00, 0x00, 0x0a, 0x00, 0x00, 0x00, 0xb2, 0xf3, 0xff, 0xff,
  0x00, 0x00, 0x00, 0x01, 0x14, 0x00, 0x00, 0x00, 0x34, 0x00, 0x00, 0x00,
  0x0f, 0x00, 0x00, 0x00, 0x00, 0x00, 0x00, 0x09, 0x54, 0x00, 0x00, 0x00,
  0x9c, 0xf3, 0xff, 0xff, 0x08, 0x00, 0x00, 0x00, 0x14, 0x00, 0x00, 0x00,
  0x01, 0x00, 0x00, 0x00, 0x31, 0x00, 0x00, 0x00, 0x00, 0x00, 0x00, 0x00,
  0x00, 0x00, 0x00, 0x00, 0x01, 0x00, 0x00, 0x00, 0x6a, 0xea, 0xfa, 0x3e,
  0x26, 0x00, 0x00, 0x00, 0x6d, 0x6f, 0x64, 0x65, 0x6c, 0x2f, 0x64, 0x65,
  0x6e, 0x73, 0x65, 0x2f, 0x4d, 0x61, 0x74, 0x4d, 0x75, 0x6c, 0x3b, 0x6d,
  0x6f, 0x64, 0x65, 0x6c, 0x2f, 0x64, 0x65, 0x6e, 0x73, 0x65, 0x2f, 0x42,
  0x69, 0x61, 0x73, 0x41, 0x64, 0x64, 0x00, 0x00, 0x02, 0x00, 0x00, 0x00,
  0x01, 0x00, 0x00, 0x00, 0x0a, 0x00, 0x00, 0x00, 0x2a, 0xf4, 0xff, 0xff,
  0x00, 0x00, 0x00, 0x01, 0x14, 0x00, 0x00, 0x00, 0x34, 0x00, 0x00, 0x00,
  0x0e, 0x00, 0x00, 0x00, 0x00, 0x00, 0x00, 0x09, 0x44, 0x00, 0x00, 0x00,
  0x14, 0xf4, 0xff, 0xff, 0x08, 0x00, 0x00, 0x00, 0x14, 0x00, 0x00, 0x00,
  0x01, 0x00, 0x00, 0x00, 0x80, 0xff, 0xff, 0xff, 0xff, 0xff, 0xff, 0xff,
  0x00, 0x00, 0x00, 0x00, 0x01, 0x00, 0x00, 0x00, 0x9b, 0x5d, 0xe5, 0x3d,
  0x15, 0x00, 0x00, 0x00, 0x6d, 0x6f, 0x64, 0x65, 0x6c, 0x2f, 0x66, 0x6c,
  0x61, 0x74, 0x74, 0x65, 0x6e, 0x2f, 0x52, 0x65, 0x73, 0x68, 0x61, 0x70,
  0x65, 0x00, 0x00, 0x00, 0x02, 0x00, 0x00, 0x00, 0x01, 0x00, 0x00, 0x00,
  0x00, 0x02, 0x00, 0x00, 0x92, 0xf4, 0xff, 0xff, 0x00, 0x00, 0x00, 0x01,
  0x14, 0x00, 0x00, 0x00, 0x34, 0x00, 0x00, 0x00, 0x0d, 0x00, 0x00, 0x00,
  0x00, 0x00, 0x00, 0x09, 0x9c, 0x00, 0x00, 0x00, 0x7c, 0xf4, 0xff, 0xff,
  0x08, 0x00, 0x00, 0x00, 0x14, 0x00, 0x00, 0x00, 0x01, 0x00, 0x00, 0x00,
  0x80, 0xff, 0xff, 0xff, 0xff, 0xff, 0xff, 0xff, 0x00, 0x00, 0x00, 0x00,
  0x01, 0x00, 0x00, 0x00, 0x9b, 0x5d, 0xe5, 0x3d, 0x6f, 0x00, 0x00, 0x00,
  0x6d, 0x6f, 0x64, 0x65, 0x6c, 0x2f, 0x63, 0x6f, 0x6e, 0x76, 0x32, 0x64,
  0x5f, 0x32, 0x2f, 0x52, 0x65, 0x6c, 0x75, 0x3b, 0x6d, 0x6f, 0x64, 0x65,
  0x6c, 0x2f, 0x63, 0x6f, 0x6e, 0x76, 0x32, 0x64, 0x5f, 0x32, 0x2f, 0x42,
  0x69, 0x61, 0x73, 0x41, 0x64, 0x64, 0x3b, 0x6d, 0x6f, 0x64, 0x65, 0x6c,
  0x2f, 0x63, 0x6f, 0x6e, 0x76, 0x32, 0x64, 0x5f, 0x32, 0x2f, 0x43, 0x6f,
  0x6e, 0x76, 0x32, 0x44, 0x3b, 0x6d, 0x6f, 0x64, 0x65, 0x6c, 0x2f, 0x63,
  0x6f, 0x6e, 0x76, 0x32, 0x64, 0x5f, 0x32, 0x2f, 0x42, 0x69, 0x61, 0x73,
  0x41, 0x64, 0x64, 0x2f, 0x52, 0x65, 0x61, 0x64, 0x56, 0x61, 0x72, 0x69,
  0x61, 0x62, 0x6c, 0x65, 0x4f, 0x70, 0x2f, 0x72, 0x65, 0x73, 0x6f, 0x75,
  0x72, 0x63, 0x65, 0x00, 0x04, 0x00, 0x00, 0x00, 0x01, 0x00, 0x00, 0x00,
  0x04, 0x00, 0x00, 0x00, 0x04, 0x00, 0x00, 0x00, 0x20, 0x00, 0x00, 0x00,
  0x5a, 0xf5, 0xff, 0xff, 0x00, 0x00, 0x00, 0x01, 0x14, 0x00, 0x00, 0x00,
  0x34, 0x00, 0x00, 0x00, 0x0c, 0x00, 0x00, 0x00, 0x00, 0x00, 0x00, 0x09,
  0x9c, 0x00, 0x00, 0x00, 0x44, 0xf5, 0xff, 0xff, 0x08, 0x00, 0x00, 0x00,
  0x14, 0x00, 0x00, 0x00, 0x01, 0x00, 0x00, 0x00, 0x80, 0xff, 0xff, 0xff,
  0xff, 0xff, 0xff, 0xff, 0x00, 0x00, 0x00, 0x00, 0x01, 0x00, 0x00, 0x00,
  0xe6, 0xe3, 0x47, 0x3d, 0x6f, 0x00, 0x00, 0x00, 0x6d, 0x6f, 0x64, 0x65,
  0x6c, 0x2f, 0x63, 0x6f, 0x6e, 0x76, 0x32, 0x64, 0x5f, 0x31, 0x2f, 0x52,
  0x65, 0x6c, 0x75, 0x3b, 0x6d, 0x6f, 0x64, 0x65, 0x6c, 0x2f, 0x63, 0x6f,
  0x6e, 0x76, 0x32, 0x64, 0x5f, 0x31, 0x2f, 0x42, 0x69, 0x61, 0x73, 0x41,
  0x64, 0x64, 0x3b, 0x6d, 0x6f, 0x64, 0x65, 0x6c, 0x2f, 0x63, 0x6f, 0x6e,
  0x76, 0x32, 0x64, 0x5f, 0x31, 0x2f, 0x43, 0x6f, 0x6e, 0x76, 0x32, 0x44,
  0x3b, 0x6d, 0x6f, 0x64, 0x65, 0x6c, 0x2f, 0x63, 0x6f, 0x6e, 0x76, 0x32,
  0x64, 0x5f, 0x31, 0x2f, 0x42, 0x69, 0x61, 0x73, 0x41, 0x64, 0x64, 0x2f,
  0x52, 0x65, 0x61, 0x64, 0x56, 0x61, 0x72, 0x69, 0x61, 0x62, 0x6c, 0x65,
  0x4f, 0x70, 0x2f, 0x72, 0x65, 0x73, 0x6f, 0x75, 0x72, 0x63, 0x65, 0x00,
  0x04, 0x00, 0x00, 0x00, 0x01, 0x00, 0x00, 0x00, 0x08, 0x00, 0x00, 0x00,
  0x08, 0x00, 0x00, 0x00, 0x10, 0x00, 0x00, 0x00, 0x22, 0xf6, 0xff, 0xff,
  0x00, 0x00, 0x00, 0x01, 0x14, 0x00, 0x00, 0x00, 0x30, 0x00, 0x00, 0x00,
  0x0b, 0x00, 0x00, 0x00, 0x00, 0x00, 0x00, 0x09, 0x94, 0x00, 0x00, 0x00,
  0x0c, 0xf6, 0xff, 0xff, 0x08, 0x00, 0x00, 0x00, 0x10, 0x00, 0x00, 0x00,
  0x01, 0x00, 0x00, 0x00, 0x80, 0xff, 0xff, 0xff, 0xff, 0xff, 0xff, 0xff,
  0x01, 0x00, 0x00, 0x00, 0x83, 0x8d, 0x86, 0x3c, 0x68, 0x00, 0x00, 0x00,
  0x6d, 0x6f, 0x64, 0x65, 0x6c, 0x2f, 0x63, 0x6f, 0x6e, 0x76, 0x32, 0x64,
  0x2f, 0x52, 0x65, 0x6c, 0x75, 0x3b, 0x6d, 0x6f, 0x64, 0x65, 0x6c, 0x2f,
  0x63, 0x6f, 0x6e, 0x76, 0x32, 0x64, 0x2f, 0x42, 0x69, 0x61, 0x73, 0x41,
  0x64, 0x64, 0x3b, 0x6d, 0x6f, 0x64, 0x65, 0x6c, 0x2f, 0x63, 0x6f, 0x6e,
  0x76, 0x32, 0x64, 0x2f, 0x43, 0x6f, 0x6e, 0x76, 0x32, 0x44, 0x3b, 0x6d,
  0x6f, 0x64, 0x65, 0x6c, 0x2f, 0x63, 0x6f, 0x6e, 0x76, 0x32, 0x64, 0x2f,
  0x42, 0x69, 0x61, 0x73, 0x41, 0x64, 0x64, 0x2f, 0x52, 0x65, 0x61, 0x64,
  0x56, 0x61, 0x72, 0x69, 0x61, 0x62, 0x6c, 0x65, 0x4f, 0x70, 0x2f, 0x72,
  0x65, 0x73, 0x6f, 0x75, 0x72, 0x63, 0x65, 0x31, 0x00, 0x00, 0x00, 0x00,
  0x04, 0x00, 0x00, 0x00, 0x01, 0x00, 0x00, 0x00, 0x10, 0x00, 0x00, 0x00,
  0x10, 0x00, 0x00, 0x00, 0x08, 0x00, 0x00, 0x00, 0xe2, 0xf6, 0xff, 0xff,
  0x00, 0x00, 0x00, 0x01, 0x14, 0x00, 0x00, 0x00, 0x84, 0x00, 0x00, 0x00,
  0x0a, 0x00, 0x00, 0x00, 0x00, 0x00, 0x00, 0x09, 0xe4, 0x00, 0x00, 0x00,
  0xcc, 0xf6, 0xff, 0xff, 0x08, 0x00, 0x00, 0x00, 0x48, 0x00, 0x00, 0x00,
  0x08, 0x00, 0x00, 0x00, 0x00, 0x00, 0x00, 0x00, 0x00, 0x00, 0x00, 0x00,
  0x00, 0x00, 0x00, 0x00, 0x00, 0x00, 0x00, 0x00, 0x00, 0x00, 0x00, 0x00,
  0x00, 0x00, 0x00, 0x00, 0x00, 0x00, 0x00, 0x00, 0x00, 0x00, 0x00, 0x00,
  0x00, 0x00, 0x00, 0x00, 0x00, 0x00, 0x00, 0x00, 0x00, 0x00, 0x00, 0x00,
  0x00, 0x00, 0x00, 0x00, 0x00, 0x00, 0x00, 0x00, 0x00, 0x00, 0x00, 0x00,
  0x00, 0x00, 0x00, 0x00, 0x00, 0x00, 0x00, 0x00, 0x08, 0x00, 0x00, 0x00,
  0x69, 0x57, 0x97, 0x37, 0x4e, 0x07, 0x0c, 0x38, 0xf4, 0x99, 0xb5, 0x37,
  0x85, 0xfc, 0xe3, 0x37, 0xa5, 0x76, 0xa1, 0x37, 0x18, 0x8b, 0xba, 0x37,
  0x50, 0x04, 0xbe, 0x37, 0xfd, 0xd7, 0xd4, 0x37, 0x67, 0x00, 0x00, 0x00,
  0x6d, 0x6f, 0x64, 0x65, 0x6c, 0x2f, 0x63, 0x6f, 0x6e, 0x76, 0x32, 0x64,
  0x2f, 0x52, 0x65, 0x6c, 0x75, 0x3b, 0x6d, 0x6f, 0x64, 0x65, 0x6c, 0x2f,
  0x63, 0x6f, 0x6e, 0x76, 0x32, 0x64, 0x2f, 0x42, 0x69, 0x61, 0x73, 0x41,
  0x64, 0x64, 0x3b, 0x6d, 0x6f, 0x64, 0x65, 0x6c, 0x2f, 0x63, 0x6f, 0x6e,
  0x76, 0x32, 0x64, 0x2f, 0x43, 0x6f, 0x6e, 0x76, 0x32, 0x44, 0x3b, 0x6d,
  0x6f, 0x64, 0x65, 0x6c, 0x2f, 0x63, 0x6f, 0x6e, 0x76, 0x32, 0x64, 0x2f,
  0x42, 0x69, 0x61, 0x73, 0x41, 0x64, 0x64, 0x2f, 0x52, 0x65, 0x61, 0x64,
  0x56, 0x61, 0x72, 0x69, 0x61, 0x62, 0x6c, 0x65, 0x4f, 0x70, 0x2f, 0x72,
  0x65, 0x73, 0x6f, 0x75, 0x72, 0x63, 0x65, 0x00, 0x04, 0x00, 0x00, 0x00,
  0x08, 0x00, 0x00, 0x00, 0x03, 0x00, 0x00, 0x00, 0x03, 0x00, 0x00, 0x00,
  0x03, 0x00, 0x00, 0x00, 0xf2, 0xf7, 0xff, 0xff, 0x00, 0x00, 0x00, 0x01,
  0x14, 0x00, 0x00, 0x00, 0x88, 0x00, 0x00, 0x00, 0x09, 0x00, 0x00, 0x00,
  0x00, 0x00, 0x00, 0x02, 0xb0, 0x00, 0x00, 0x00, 0xdc, 0xf7, 0xff, 0xff,
  0x08, 0x00, 0x00, 0x00, 0x4c, 0x00, 0x00, 0x00, 0x08, 0x00, 0x00, 0x00,
  0x00, 0x00, 0x00, 0x00, 0x00, 0x00, 0x00, 0x00, 0x00, 0x00, 0x00, 0x00,
  0x00, 0x00, 0x00, 0x00, 0x00, 0x00, 0x00, 0x00, 0x00, 0x00, 0x00, 0x00,
  0x00, 0x00, 0x00, 0x00, 0x00, 0x00, 0x00, 0x00, 0x00, 0x00, 0x00, 0x00,
  0x00, 0x00, 0x00, 0x00, 0x00, 0x00, 0x00, 0x00, 0x00, 0x00, 0x00, 0x00,
  0x00, 0x00, 0x00, 0x00, 0x00, 0x00, 0x00, 0x00, 0x00, 0x00, 0x00, 0x00,
  0x00, 0x00, 0x00, 0x00, 0x00, 0x00, 0x00, 0x00, 0x08, 0x00, 0x00, 0x00,
  0x69, 0x57, 0x97, 0x37, 0x4e, 0x07, 0x0c, 0x38, 0xf4, 0x99, 0xb5, 0x37,
  0x85, 0xfc, 0xe3, 0x37, 0xa5, 0x76, 0xa1, 0x37, 0x18, 0x8b, 0xba, 0x37,
  0x50, 0x04, 0xbe, 0x37, 0xfd, 0xd7, 0xd4, 0x37, 0x2c, 0x00, 0x00, 0x00,
  0x6d, 0x6f, 0x64, 0x65, 0x6c, 0x2f, 0x63, 0x6f, 0x6e, 0x76, 0x32, 0x64,
  0x2f, 0x42, 0x69, 0x61, 0x73, 0x41, 0x64, 0x64, 0x2f, 0x52, 0x65, 0x61,
  0x64, 0x56, 0x61, 0x72, 0x69, 0x61, 0x62, 0x6c, 0x65, 0x4f, 0x70, 0x2f,
  0x72, 0x65, 0x73, 0x6f, 0x75, 0x72, 0x63, 0x65, 0x00, 0x00, 0x00, 0x00,
  0x01, 0x00, 0x00, 0x00, 0x08, 0x00, 0x00, 0x00, 0xc2, 0xf8, 0xff, 0xff,
  0x00, 0x00, 0x00, 0x01, 0x14, 0x00, 0x00, 0x00, 0xe4, 0x00, 0x00, 0x00,
  0x08, 0x00, 0x00, 0x00, 0x00, 0x00, 0x00, 0x09, 0xf4, 0x00, 0x00, 0x00,
  0xac, 0xf8, 0xff, 0xff, 0x08, 0x00, 0x00, 0x00, 0x88, 0x00, 0x00, 0x00,
  0x10, 0x00, 0x00, 0x00, 0x00, 0x00, 0x00, 0x00, 0x00, 0x00, 0x00, 0x00,
  0x00, 0x00, 0x00, 0x00, 0x00, 0x00, 0x00, 0x00, 0x00, 0x00, 0x00, 0x00,
  0x00, 0x00, 0x00, 0x00, 0x00, 0x00, 0x00, 0x00, 0x00, 0x00, 0x00, 0x00,
  0x00, 0x00, 0x00, 0x00, 0x00, 0x00, 0x00, 0x00, 0x00, 0x00, 0x00, 0x00,
  0x00, 0x00, 0x00, 0x00, 0x00, 0x00, 0x00, 0x00, 0x00, 0x00, 0x00, 0x00,
  0x00, 0x00, 0x00, 0x00, 0x00, 0x00, 0x00, 0x00, 0x00, 0x00, 0x00, 0x00,
  0x00, 0x00, 0x00, 0x00, 0x00, 0x00, 0x00, 0x00, 0x00, 0x00, 0x00, 0x00,
  0x00, 0x00, 0x00, 0x00, 0x00, 0x00, 0x00, 0x00, 0x00, 0x00, 0x00, 0x00,
  0x00, 0x00, 0x00, 0x00, 0x00, 0x00, 0x00, 0x00, 0x00, 0x00, 0x00, 0x00,
  0x00, 0x00, 0x00, 0x00, 0x00, 0x00, 0x00, 0x00, 0x00, 0x00, 0x00, 0x00,
  0x00, 0x00, 0x00, 0x00, 0x00, 0x00, 0x00, 0x00, 0x00, 0x00, 0x00, 0x00,
  0x10, 0x00, 0x00, 0x00, 0xa7, 0x4d, 0x9b, 0x3b, 0x41, 0x6e, 0xa9, 0x3b,
  0x14, 0x28, 0x84, 0x3b, 0x33, 0xa0, 0x04, 0x3c, 0xdf, 0xec, 0x93, 0x3b,
  0xd7, 0x55, 0x60, 0x3b, 0xc7, 0x65, 0x9b, 0x3b, 0xf5, 0x3d, 0xb1, 0x3b,
  0x23, 0x1a, 0xf3, 0x3b, 0xfa, 0x8b, 0x9b, 0x3b, 0x36, 0xed, 0xb6, 0x3b,
  0x15, 0x82, 0x4b, 0x3b, 0xf6, 0x45, 0x9a, 0x3b, 0x5d, 0x7a, 0x9b, 0x3b,
  0xcb, 0xf2, 0x90, 0x3b, 0x61, 0x20, 0x4f, 0x3b, 0x15, 0x00, 0x00, 0x00,
  0x6d, 0x6f, 0x64, 0x65, 0x6c, 0x2f, 0x63, 0x6f, 0x6e, 0x76, 0x32, 0x64,
  0x5f, 0x31, 0x2f, 0x43, 0x6f, 0x6e, 0x76, 0x32, 0x44, 0x00, 0x00, 0x00,
  0x04, 0x00, 0x00, 0x00, 0x10, 0x00, 0x00, 0x00, 0x03, 0x00, 0x00, 0x00,
  0x03, 0x00, 0x00, 0x00, 0x08, 0x00, 0x00, 0x00, 0xe2, 0xf9, 0xff, 0xff,
  0x00, 0x00, 0x00, 0x01, 0x14, 0x00, 0x00, 0x00, 0xe8, 0x00, 0x00, 0x00,
  0x07, 0x00, 0x00, 0x00, 0x00, 0x00, 0x00, 0x02, 0x10, 0x01, 0x00, 0x00,
  0xcc, 0xf9, 0xff, 0xff, 0x08, 0x00, 0x00, 0x00, 0x8c, 0x00, 0x00, 0x00,
  0x10, 0x00, 0x00, 0x00, 0x00, 0x00, 0x00, 0x00, 0x00, 0x00, 0x00, 0x00,
  0x00, 0x00, 0x00, 0x00, 0x00, 0x00, 0x00, 0x00, 0x00, 0x00, 0x00, 0x00,
  0x00, 0x00, 0x00, 0x00, 0x00, 0x00, 0x00, 0x00, 0x00, 0x00, 0x00, 0x00,
  0x00, 0x00, 0x00, 0x00, 0x00, 0x00, 0x00, 0x00, 0x00, 0x00, 0x00, 0x00,
  0x00, 0x00, 0x00, 0x00, 0x00, 0x00, 0x00, 0x00, 0x00, 0x00, 0x00, 0x00,
  0x00, 0x00, 0x00, 0x00, 0x00, 0x00, 0x00, 0x00, 0x00, 0x00, 0x00, 0x00,
  0x00, 0x00, 0x00, 0x00, 0x00, 0x00, 0x00, 0x00, 0x00, 0x00, 0x00, 0x00,
  0x00, 0x00, 0x00, 0x00, 0x00, 0x00, 0x00, 0x00, 0x00, 0x00, 0x00, 0x00,
  0x00, 0x00, 0x00, 0x00, 0x00, 0x00, 0x00, 0x00, 0x00, 0x00, 0x00, 0x00,
  0x00, 0x00, 0x00, 0x00, 0x00, 0x00, 0x00, 0x00, 0x00, 0x00, 0x00, 0x00,
  0x00, 0x00, 0x00, 0x00, 0x00, 0x00, 0x00, 0x00, 0x00, 0x00, 0x00, 0x00,
  0x00, 0x00, 0x00, 0x00, 0x10, 0x00, 0x00, 0x00, 0xfd, 0x40, 0xa3, 0x38,
  0xbd, 0x1a, 0xb2, 0x38, 0x10, 0xec, 0x8a, 0x38, 0x56, 0x6a, 0x0b, 0x39,
  0x84, 0x7f, 0x9b, 0x38, 0xe1, 0xd1, 0x6b, 0x38, 0x59, 0x5a, 0xa3, 0x38,
  0xd0, 0x50, 0xba, 0x38, 0x20, 0x8c, 0xff, 0x38, 0x81, 0x82, 0xa3, 0x38,
  0x91, 0x4a, 0xc0, 0x38, 0x2c, 0xed, 0x55, 0x38, 0xcc, 0x2b, 0xa2, 0x38,
  0xfd, 0x6f, 0xa3, 0x38, 0x6c, 0x5e, 0x98, 0x38, 0xe3, 0xba, 0x59, 0x38,
  0x2e, 0x00, 0x00, 0x00, 0x6d, 0x6f, 0x64, 0x65, 0x6c, 0x2f, 0x63, 0x6f,
  0x6e, 0x76, 0x32, 0x64, 0x5f, 0x31, 0x2f, 0x42, 0x69, 0x61, 0x73, 0x41,
  0x64, 0x64, 0x2f, 0x52, 0x65, 0x61, 0x64, 0x56, 0x61, 0x72, 0x69, 0x61,
  0x62, 0x6c, 0x65, 0x4f, 0x70, 0x2f, 0x72, 0x65, 0x73, 0x6f, 0x75, 0x72,
  0x63, 0x65, 0x00, 0x00, 0x01, 0x00, 0x00, 0x00, 0x10, 0x00, 0x00, 0x00,
  0x12, 0xfb, 0xff, 0xff, 0x00, 0x00, 0x00, 0x01, 0x14, 0x00, 0x00, 0x00,
  0xa4, 0x01, 0x00, 0x00, 0x06, 0x00, 0x00, 0x00, 0x00, 0x00, 0x00, 0x09,
  0xb4, 0x01, 0x00, 0x00, 0xfc, 0xfa, 0xff, 0xff, 0x08, 0x00, 0x00, 0x00,
  0x08, 0x01, 0x00, 0x00, 0x20, 0x00, 0x00, 0x00, 0x00, 0x00, 0x00, 0x00,
  0x00, 0x00, 0x00, 0x00, 0x00, 0x00, 0x00, 0x00, 0x00, 0x00, 0x00, 0x00,
  0x00, 0x00, 0x00, 0x00, 0x00, 0x00, 0x00, 0x00, 0x00, 0x00, 0x00, 0x00,
  0x00, 0x00, 0x00, 0x00, 0x00, 0x00, 0x00, 0x00, 0x00, 0x00, 0x00, 0x00,
  0x00, 0x00, 0x00, 0x00, 0x00, 0x00, 0x00, 0x00, 0x00, 0x00, 0x00, 0x00,
  0x00, 0x00, 0x00, 0x00, 0x00, 0x00, 0x00, 0x00, 0x00, 0x00, 0x00, 0x00,
  0x00, 0x00, 0x00, 0x00, 0x00, 0x00, 0x00, 0x00, 0x00, 0x00, 0x00, 0x00,
  0x00, 0x00, 0x00, 0x00, 0x00, 0x00, 0x00, 0x00, 0x00, 0x00, 0x00, 0x00,
  0x00, 0x00, 0x00, 0x00, 0x00, 0x00, 0x00, 0x00, 0x00, 0x00, 0x00, 0x00,
  0x00, 0x00, 0x00, 0x00, 0x00, 0x00, 0x00, 0x00, 0x00, 0x00, 0x00, 0x00,
  0x00, 0x00, 0x00, 0x00, 0x00, 0x00, 0x00, 0x00, 0x00, 0x00, 0x00, 0x00,
  0x00, 0x00, 0x00, 0x00, 0x00, 0x00, 0x00, 0x00, 0x00, 0x00, 0x00, 0x00,
  0x00, 0x00, 0x00, 0x00, 0x00, 0x00, 0x00, 0x00, 0x00, 0x00, 0x00, 0x00,
  0x00, 0x00, 0x00, 0x00, 0x00, 0x00, 0x00, 0x00, 0x00, 0x00, 0x00, 0x00,
  0x00, 0x00, 0x00, 0x00, 0x00, 0x00, 0x00, 0x00, 0x00, 0x00, 0x00, 0x00,
  0x00, 0x00, 0x00, 0x00, 0x00, 0x00, 0x00, 0x00, 0x00, 0x00, 0x00, 0x00,
  0x00, 0x00, 0x00, 0x00, 0x00, 0x00, 0x00, 0x00, 0x00, 0x00, 0x00, 0x00,
  0x00, 0x00, 0x00, 0x00, 0x00, 0x00, 0x00, 0x00, 0x00, 0x00, 0x00, 0x00,
  0x00, 0x00, 0x00, 0x00, 0x00, 0x00, 0x00, 0x00, 0x00, 0x00, 0x00, 0x00,
  0x00, 0x00, 0x00, 0x00, 0x00, 0x00, 0x00, 0x00, 0x00, 0x00, 0x00, 0x00,
  0x00, 0x00, 0x00, 0x00, 0x00, 0x00, 0x00, 0x00, 0x00, 0x00, 0x00, 0x00,
  0x00, 0x00, 0x00, 0x00, 0x00, 0x00, 0x00, 0x00, 0x00, 0x00, 0x00, 0x00,
  0x20, 0x00, 0x00, 0x00, 0x7d, 0xb4, 0x3d, 0x3b, 0xa2, 0x0d, 0x7f, 0x3b,
  0xf5, 0xee, 0x40, 0x3b, 0xb4, 0x93, 0x43, 0x3b, 0x26, 0x34, 0x82, 0x3b,
  0x7d, 0xd9, 0x97, 0x3b, 0x3e, 0x4f, 0x64, 0x3b, 0x94, 0x91, 0xa2, 0x3b,
  0x8c, 0x4a, 0x99, 0x3b, 0x0e, 0xa2, 0x64, 0x3b, 0xbf, 0x8b, 0x7d, 0x3b,
  0x1e, 0x44, 0x26, 0x3b, 0x86, 0x30, 0x8e, 0x3b, 0xf8, 0xc0, 0x37, 0x3b,
  0x44, 0x83, 0x4d, 0x3b, 0x5e, 0xc2, 0xab, 0x3b, 0x79, 0x1b, 0x51, 0x3b,
  0xdc, 0xa4, 0x83, 0x3b, 0xd0, 0xc5, 0x1f, 0x3b, 0x50, 0xb4, 0xad, 0x3b,
  0x13, 0x7e, 0x78, 0x3b, 0x07, 0xaa, 0x4d, 0x3b, 0x00, 0xa6, 0x7c, 0x3b,
  0xbe, 0xf4, 0x61, 0x3b, 0xf4, 0x46, 0x96, 0x3b, 0x13, 0x13, 0x75, 0x3b,
  0xa7, 0x23, 0x7a, 0x3b, 0x79, 0xb3, 0x43, 0x3b, 0x36, 0xf7, 0xa4, 0x3b,
  0xa0, 0xe3, 0x90, 0x3b, 0x5b, 0x10, 0x90, 0x3b, 0xcb, 0xc8, 0x51, 0x3b,
  0x15, 0x00, 0x00, 0x00, 0x6d, 0x6f, 0x64, 0x65, 0x6c, 0x2f, 0x63, 0x6f,
  0x6e, 0x76, 0x32, 0x64, 0x5f, 0x32, 0x2f, 0x43, 0x6f, 0x6e, 0x76, 0x32,
  0x44, 0x00, 0x00, 0x00, 0x04, 0x00, 0x00, 0x00, 0x20, 0x00, 0x00, 0x00,
  0x03, 0x00, 0x00, 0x00, 0x03, 0x00, 0x00, 0x00, 0x10, 0x00, 0x00, 0x00,
  0xf2, 0xfc, 0xff, 0xff, 0x00, 0x00, 0x00, 0x01, 0x14, 0x00, 0x00, 0x00,
  0xa8, 0x01, 0x00, 0x00, 0x05, 0x00, 0x00, 0x00, 0x00, 0x00, 0x00, 0x02,
  0xd0, 0x01, 0x00, 0x00, 0xdc, 0xfc, 0xff, 0xff, 0x08, 0x00, 0x00, 0x00,
  0x0c, 0x01, 0x00, 0x00, 0x20, 0x00, 0x00, 0x00, 0x00, 0x00, 0x00, 0x00,
  0x00, 0x00, 0x00, 0x00, 0x00, 0x00, 0x00, 0x00, 0x00, 0x00, 0x00, 0x00,
  0x00, 0x00, 0x00, 0x00, 0x00, 0x00, 0x00, 0x00, 0x00, 0x00, 0x00, 0x00,
  0x00, 0x00, 0x00, 0x00, 0x00, 0x00, 0x00, 0x00, 0x00, 0x00, 0x00, 0x00,
  0x00, 0x00, 0x00, 0x00, 0x00, 0x00, 0x00, 0x00, 0x00, 0x00, 0x00, 0x00,
  0x00, 0x00, 0x00, 0x00, 0x00, 0x00, 0x00, 0x00, 0x00, 0x00, 0x00, 0x00,
  0x00, 0x00, 0x00, 0x00, 0x00, 0x00, 0x00, 0x00, 0x00, 0x00, 0x00, 0x00,
  0x00, 0x00, 0x00, 0x00, 0x00, 0x00, 0x00, 0x00, 0x00, 0x00, 0x00, 0x00,
  0x00, 0x00, 0x00, 0x00, 0x00, 0x00, 0x00, 0x00, 0x00, 0x00, 0x00, 0x00,
  0x00, 0x00, 0x00, 0x00, 0x00, 0x00, 0x00, 0x00, 0x00, 0x00, 0x00, 0x00,
  0x00, 0x00, 0x00, 0x00, 0x00, 0x00, 0x00, 0x00, 0x00, 0x00, 0x00, 0x00,
  0x00, 0x00, 0x00, 0x00, 0x00, 0x00, 0x00, 0x00, 0x00, 0x00, 0x00, 0x00,
  0x00, 0x00, 0x00, 0x00, 0x00, 0x00, 0x00, 0x00, 0x00, 0x00, 0x00, 0x00,
  0x00, 0x00, 0x00, 0x00, 0x00, 0x00, 0x00, 0x00, 0x00, 0x00, 0x00, 0x00,
  0x00, 0x00, 0x00, 0x00, 0x00, 0x00, 0x00, 0x00, 0x00, 0x00, 0x00, 0x00,
  0x00, 0x00, 0x00, 0x00, 0x00, 0x00, 0x00, 0x00, 0x00, 0x00, 0x00, 0x00,
  0x00, 0x00, 0x00, 0x00, 0x00, 0x00, 0x00, 0x00, 0x00, 0x00, 0x00, 0x00,
  0x00, 0x00, 0x00, 0x00, 0x00, 0x00, 0x00, 0x00, 0x00, 0x00, 0x00, 0x00,
  0x00, 0x00, 0x00, 0x00, 0x00, 0x00, 0x00, 0x00, 0x00, 0x00, 0x00, 0x00,
  0x00, 0x00, 0x00, 0x00, 0x00, 0x00, 0x00, 0x00, 0x00, 0x00, 0x00, 0x00,
  0x00, 0x00, 0x00, 0x00, 0x00, 0x00, 0x00, 0x00, 0x00, 0x00, 0x00, 0x00,
  0x00, 0x00, 0x00, 0x00, 0x00, 0x00, 0x00, 0x00, 0x00, 0x00, 0x00, 0x00,
  0x00, 0x00, 0x00, 0x00, 0x20, 0x00, 0x00, 0x00, 0x2f, 0x20, 0x14, 0x39,
  0xa7, 0x26, 0x47, 0x39, 0x82, 0xa5, 0x16, 0x39, 0xed, 0xb5, 0x18, 0x39,
  0xe6, 0x54, 0x4b, 0x39, 0x7d, 0x22, 0x6d, 0x39, 0xd9, 0x44, 0x32, 0x39,
  0xc6, 0xdf, 0x7d, 0x39, 0xd3, 0x62, 0x6f, 0x39, 0x82, 0x85, 0x32, 0x39,
  0x58, 0xf9, 0x45, 0x39, 0xf7, 0xd2, 0x01, 0x39, 0x9a, 0x0c, 0x5e, 0x39,
  0x96, 0x7a, 0x0f, 0x39, 0xfe, 0x77, 0x20, 0x39, 0xff, 0x1c, 0x86, 0x39,
  0x82, 0x46, 0x23, 0x39, 0xb1, 0x94, 0x4d, 0x39, 0x01, 0x82, 0xf9, 0x38,
  0xcd, 0xa1, 0x87, 0x39, 0x38, 0x07, 0x42, 0x39, 0x42, 0x96, 0x20, 0x39,
  0xf4, 0x45, 0x45, 0x39, 0x67, 0x6e, 0x30, 0x39, 0xdf, 0xad, 0x6a, 0x39,
  0x00, 0x5c, 0x3f, 0x39, 0x65, 0x50, 0x43, 0x39, 0xbb, 0xce, 0x18, 0x39,
  0x06, 0xcf, 0x80, 0x39, 0xdb, 0x43, 0x62, 0x39, 0xed, 0xf9, 0x60, 0x39,
  0xd7, 0xcd, 0x23, 0x39, 0x2e, 0x00, 0x00, 0x00, 0x6d, 0x6f, 0x64, 0x65,
  0x6c, 0x2f, 0x63, 0x6f, 0x6e, 0x76, 0x32, 0x64, 0x5f, 0x32, 0x2f, 0x42,
  0x69, 0x61, 0x73, 0x41, 0x64, 0x64, 0x2f, 0x52, 0x65, 0x61, 0x64, 0x56,
  0x61, 0x72, 0x69, 0x61, 0x62, 0x6c, 0x65, 0x4f, 0x70, 0x2f, 0x72, 0x65,
  0x73, 0x6f, 0x75, 0x72, 0x63, 0x65, 0x00, 0x00, 0x01, 0x00, 0x00, 0x00,
  0x20, 0x00, 0x00, 0x00, 0xe2, 0xfe, 0xff, 0xff, 0x00, 0x00, 0x00, 0x01,
  0x14, 0x00, 0x00, 0x00, 0x30, 0x00, 0x00, 0x00, 0x04, 0x00, 0x00, 0x00,
  0x00, 0x00, 0x00, 0x09, 0x3c, 0x00, 0x00, 0x00, 0xcc, 0xfe, 0xff, 0xff,
  0x08, 0x00, 0x00, 0x00, 0x10, 0x00, 0x00, 0x00, 0x01, 0x00, 0x00, 0x00,
  0x00, 0x00, 0x00, 0x00, 0x00, 0x00, 0x00, 0x00, 0x01, 0x00, 0x00, 0x00,
  0x4f, 0xe8, 0x1e, 0x3c, 0x12, 0x00, 0x00, 0x00, 0x6d, 0x6f, 0x64, 0x65,
  0x6c, 0x2f, 0x64, 0x65, 0x6e, 0x73, 0x65, 0x2f, 0x4d, 0x61, 0x74, 0x4d,
  0x75, 0x6c, 0x00, 0x00, 0x02, 0x00, 0x00, 0x00, 0x0a, 0x00, 0x00, 0x00,
  0x00, 0x02, 0x00, 0x00, 0x42, 0xff, 0xff, 0xff, 0x00, 0x00, 0x00, 0x01,
  0x14, 0x00, 0x00, 0x00, 0x34, 0x00, 0x00, 0x00, 0x03, 0x00, 0x00, 0x00,
  0x00, 0x00, 0x00, 0x02, 0x58, 0x00, 0x00, 0x00, 0x2c, 0xff, 0xff, 0xff,
  0x08, 0x00, 0x00, 0x00, 0x14, 0x00, 0x00, 0x00, 0x01, 0x00, 0x00, 0x00,
  0x00, 0x00, 0x00, 0x00, 0x00, 0x00, 0x00, 0x00, 0x00, 0x00, 0x00, 0x00,
  0x01, 0x00, 0x00, 0x00, 0xe9, 0x5f, 0x8e, 0x3a, 0x2b, 0x00, 0x00, 0x00,
  0x6d, 0x6f, 0x64, 0x65, 0x6c, 0x2f, 0x64, 0x65, 0x6e, 0x73, 0x65, 0x2f,
  0x42, 0x69, 0x61, 0x73, 0x41, 0x64, 0x64, 0x2f, 0x52, 0x65, 0x61, 0x64,
  0x56, 0x61, 0x72, 0x69, 0x61, 0x62, 0x6c, 0x65, 0x4f, 0x70, 0x2f, 0x72,
  0x65, 0x73, 0x6f, 0x75, 0x72, 0x63, 0x65, 0x00, 0x01, 0x00, 0x00, 0x00,
  0x0a, 0x00, 0x00, 0x00, 0xba, 0xff, 0xff, 0xff, 0x00, 0x00, 0x00, 0x01,
  0x18, 0x00, 0x00, 0x00, 0x18, 0x00, 0x00, 0x00, 0x02, 0x00, 0x00, 0x00,
  0x00, 0x00, 0x00, 0x02, 0x24, 0x00, 0x00, 0x00, 0x04, 0x00, 0x04, 0x00,
  0x04, 0x00, 0x00, 0x00, 0x13, 0x00, 0x00, 0x00, 0x6d, 0x6f, 0x64, 0x65,
  0x6c, 0x2f, 0x66, 0x6c, 0x61, 0x74, 0x74, 0x65, 0x6e, 0x2f, 0x43, 0x6f,
  0x6e, 0x73, 0x74, 0x00, 0x01, 0x00, 0x00, 0x00, 0x02, 0x00, 0x00, 0x00,
  0x00, 0x00, 0x16, 0x00, 0x1c, 0x00, 0x18, 0x00, 0x17, 0x00, 0x10, 0x00,
  0x0c, 0x00, 0x08, 0x00, 0x00, 0x00, 0x00, 0x00, 0x00, 0x00, 0x07, 0x00,
  0x16, 0x00, 0x00, 0x00, 0x00, 0x00, 0x00, 0x01, 0x20, 0x00, 0x00, 0x00,
  0x40, 0x00, 0x00, 0x00, 0x01, 0x00, 0x00, 0x00, 0x00, 0x00, 0x00, 0x09,
  0x3c, 0x00, 0x00, 0x00, 0x0c, 0x00, 0x0c, 0x00, 0x00, 0x00, 0x00, 0x00,
  0x08, 0x00, 0x04, 0x00, 0x0c, 0x00, 0x00, 0x00, 0x08, 0x00, 0x00, 0x00,
  0x14, 0x00, 0x00, 0x00, 0x01, 0x00, 0x00, 0x00, 0x80, 0xff, 0xff, 0xff,
  0xff, 0xff, 0xff, 0xff, 0x00, 0x00, 0x00, 0x00, 0x01, 0x00, 0x00, 0x00,
  0x00, 0x00, 0x80, 0x3f, 0x01, 0x00, 0x00, 0x00, 0x78, 0x00, 0x00, 0x00,
  0x04, 0x00, 0x00, 0x00, 0x01, 0x00, 0x00, 0x00, 0x20, 0x00, 0x00, 0x00,
  0x20, 0x00, 0x00, 0x00, 0x03, 0x00, 0x00, 0x00, 0x04, 0x00, 0x00, 0x00,
  0x54, 0x00, 0x00, 0x00, 0x38, 0x00, 0x00, 0x00, 0x18, 0x00, 0x00, 0x00,
  0x04, 0x00, 0x00, 0x00, 0xc8, 0xff, 0xff, 0xff, 0x19, 0x00, 0x00, 0x00,
  0x02, 0x00, 0x00, 0x00, 0x00, 0x00, 0x00, 0x19, 0xd8, 0xff, 0xff, 0xff,
  0x09, 0x00, 0x00, 0x00, 0x04, 0x00, 0x00, 0x00, 0x00, 0x00, 0x00, 0x09,
  0x0c, 0x00, 0x0c, 0x00, 0x0b, 0x00, 0x00, 0x00, 0x00, 0x00, 0x04, 0x00,
  0x0c, 0x00, 0x00, 0x00, 0x16, 0x00, 0x00, 0x00, 0x00, 0x00, 0x00, 0x16,
  0x0c, 0x00, 0x10, 0x00, 0x0f, 0x00, 0x00, 0x00, 0x08, 0x00, 0x04, 0x00,
  0x0c, 0x00, 0x00, 0x00, 0x03, 0x00, 0x00, 0x00, 0x03, 0x00, 0x00, 0x00,
  0x00, 0x00, 0x00, 0x03
};
unsigned int g_magic_wand_model_data_len = 15928;

